/* Copyright 2023 The TensorFlow Authors. All Rights Reserved.

Licensed under the Apache License, Version 2.0 (the "License");
you may not use this file except in compliance with the License.
You may obtain a copy of the License at

    http://www.apache.org/licenses/LICENSE-2.0

Unless required by applicable law or agreed to in writing, software
distributed under the License is distributed on an "AS IS" BASIS,
WITHOUT WARRANTIES OR CONDITIONS OF ANY KIND, either express or implied.
See the License for the specific language governing permissions and
limitations under the License.
==============================================================================*/

// Automatically created from a TensorFlow Lite flatbuffer using the command:
// xxd -i model.tflite > model.cc

// This is a standard TensorFlow Lite model file that has been converted into a
// C data array, so it can be easily compiled into a binary for devices that
// don't have a file system, such as most Arduino boards.


// The array g_model must be aligned to 16 bytes to be compatible 
// with CMSIS (Cortex Microcontroller Software Interface Standard). 
// alignas(16) directive is used to specify that the g_model array 
// should be stored in memory at an address that is a multiple of 16.
unsigned char model_tflite[] = {
  0x1c, 0x00, 0x00, 0x00, 0x54, 0x46, 0x4c, 0x33, 0x14, 0x00, 0x20, 0x00,
  0x1c, 0x00, 0x18, 0x00, 0x14, 0x00, 0x10, 0x00, 0x0c, 0x00, 0x00, 0x00,
  0x08, 0x00, 0x04, 0x00, 0x14, 0x00, 0x00, 0x00, 0x1c, 0x00, 0x00, 0x00,
  0x94, 0x00, 0x00, 0x00, 0xec, 0x00, 0x00, 0x00, 0x10, 0x11, 0x00, 0x00,
  0x20, 0x11, 0x00, 0x00, 0xf8, 0x15, 0x00, 0x00, 0x03, 0x00, 0x00, 0x00,
  0x01, 0x00, 0x00, 0x00, 0x10, 0x00, 0x00, 0x00, 0x00, 0x00, 0x0a, 0x00,
  0x10, 0x00, 0x0c, 0x00, 0x08, 0x00, 0x04, 0x00, 0x0a, 0x00, 0x00, 0x00,
  0x0c, 0x00, 0x00, 0x00, 0x1c, 0x00, 0x00, 0x00, 0x3c, 0x00, 0x00, 0x00,
  0x0f, 0x00, 0x00, 0x00, 0x73, 0x65, 0x72, 0x76, 0x69, 0x6e, 0x67, 0x5f,
  0x64, 0x65, 0x66, 0x61, 0x75, 0x6c, 0x74, 0x00, 0x01, 0x00, 0x00, 0x00,
  0x04, 0x00, 0x00, 0x00, 0x94, 0xff, 0xff, 0xff, 0x09, 0x00, 0x00, 0x00,
  0x04, 0x00, 0x00, 0x00, 0x08, 0x00, 0x00, 0x00, 0x6f, 0x75, 0x74, 0x70,
  0x75, 0x74, 0x5f, 0x30, 0x00, 0x00, 0x00, 0x00, 0x01, 0x00, 0x00, 0x00,
  0x04, 0x00, 0x00, 0x00, 0xbe, 0xef, 0xff, 0xff, 0x04, 0x00, 0x00, 0x00,
  0x0b, 0x00, 0x00, 0x00, 0x69, 0x6e, 0x70, 0x75, 0x74, 0x5f, 0x6c, 0x61,
  0x79, 0x65, 0x72, 0x00, 0x02, 0x00, 0x00, 0x00, 0x34, 0x00, 0x00, 0x00,
  0x04, 0x00, 0x00, 0x00, 0xdc, 0xff, 0xff, 0xff, 0x0c, 0x00, 0x00, 0x00,
  0x04, 0x00, 0x00, 0x00, 0x13, 0x00, 0x00, 0x00, 0x43, 0x4f, 0x4e, 0x56,
  0x45, 0x52, 0x53, 0x49, 0x4f, 0x4e, 0x5f, 0x4d, 0x45, 0x54, 0x41, 0x44,
  0x41, 0x54, 0x41, 0x00, 0x08, 0x00, 0x0c, 0x00, 0x08, 0x00, 0x04, 0x00,
  0x08, 0x00, 0x00, 0x00, 0x0b, 0x00, 0x00, 0x00, 0x04, 0x00, 0x00, 0x00,
  0x13, 0x00, 0x00, 0x00, 0x6d, 0x69, 0x6e, 0x5f, 0x72, 0x75, 0x6e, 0x74,
  0x69, 0x6d, 0x65, 0x5f, 0x76, 0x65, 0x72, 0x73, 0x69, 0x6f, 0x6e, 0x00,
  0x0d, 0x00, 0x00, 0x00, 0x20, 0x10, 0x00, 0x00, 0x18, 0x10, 0x00, 0x00,
  0xc8, 0x0f, 0x00, 0x00, 0xb0, 0x07, 0x00, 0x00, 0x9c, 0x07, 0x00, 0x00,
  0x4c, 0x07, 0x00, 0x00, 0xbc, 0x06, 0x00, 0x00, 0xac, 0x00, 0x00, 0x00,
  0xa4, 0x00, 0x00, 0x00, 0x9c, 0x00, 0x00, 0x00, 0x94, 0x00, 0x00, 0x00,
  0x74, 0x00, 0x00, 0x00, 0x04, 0x00, 0x00, 0x00, 0x6a, 0xf0, 0xff, 0xff,
  0x04, 0x00, 0x00, 0x00, 0x60, 0x00, 0x00, 0x00, 0x10, 0x00, 0x00, 0x00,
  0x00, 0x00, 0x00, 0x00, 0x08, 0x00, 0x0e, 0x00, 0x08, 0x00, 0x04, 0x00,
  0x08, 0x00, 0x00, 0x00, 0x10, 0x00, 0x00, 0x00, 0x24, 0x00, 0x00, 0x00,
  0x00, 0x00, 0x06, 0x00, 0x08, 0x00, 0x04, 0x00, 0x06, 0x00, 0x00, 0x00,
  0x04, 0x00, 0x00, 0x00, 0x00, 0x00, 0x00, 0x00, 0x0c, 0x00, 0x18, 0x00,
  0x14, 0x00, 0x10, 0x00, 0x0c, 0x00, 0x04, 0x00, 0x0c, 0x00, 0x00, 0x00,
  0x81, 0x4b, 0xa0, 0x5c, 0x5e, 0x6a, 0x5d, 0x25, 0x02, 0x00, 0x00, 0x00,
  0x02, 0x00, 0x00, 0x00, 0x04, 0x00, 0x00, 0x00, 0x06, 0x00, 0x00, 0x00,
  0x32, 0x2e, 0x31, 0x37, 0x2e, 0x30, 0x00, 0x00, 0xd6, 0xf0, 0xff, 0xff,
  0x04, 0x00, 0x00, 0x00, 0x10, 0x00, 0x00, 0x00, 0x31, 0x2e, 0x35, 0x2e,
  0x30, 0x00, 0x00, 0x00, 0x00, 0x00, 0x00, 0x00, 0x00, 0x00, 0x00, 0x00,
  0xe0, 0xeb, 0xff, 0xff, 0xe4, 0xeb, 0xff, 0xff, 0xe8, 0xeb, 0xff, 0xff,
  0xfe, 0xf0, 0xff, 0xff, 0x04, 0x00, 0x00, 0x00, 0x00, 0x06, 0x00, 0x00,
  0xc2, 0xbb, 0x82, 0xbe, 0xaf, 0xf1, 0x0c, 0xbe, 0x7f, 0x6f, 0x9a, 0xbe,
  0x8c, 0x79, 0x73, 0x3e, 0x52, 0xf3, 0x87, 0xbe, 0xd5, 0x8d, 0x8b, 0x3e,
  0xeb, 0xaa, 0x80, 0x3e, 0x28, 0xaa, 0x99, 0x3e, 0x68, 0x11, 0xad, 0x3e,
  0x60, 0x73, 0x10, 0xbe, 0x10, 0x85, 0x13, 0x3e, 0x43, 0x92, 0x3f, 0x3e,
  0x44, 0xc0, 0x42, 0xbe, 0x20, 0xa9, 0x4f, 0x3e, 0x24, 0x34, 0x59, 0xbe,
  0x33, 0x85, 0xac, 0xbe, 0x69, 0x4c, 0xa8, 0x3d, 0x2c, 0x5a, 0x6d, 0xbd,
  0xb5, 0x41, 0xb3, 0xbe, 0x08, 0x19, 0x5b, 0x3e, 0x82, 0x59, 0xb4, 0x3c,
  0x83, 0xaa, 0xc6, 0x3e, 0x2c, 0x45, 0x9b, 0x3d, 0x6c, 0xe7, 0x63, 0xbe,
  0x8c, 0x8f, 0x24, 0xbd, 0x01, 0xa3, 0xa8, 0xbe, 0xf9, 0x9e, 0x89, 0x3e,
  0x12, 0xf0, 0x80, 0xbe, 0xeb, 0x3f, 0xb1, 0x3e, 0xc1, 0xc7, 0x9c, 0x3e,
  0xd0, 0xaf, 0xb0, 0xbe, 0x83, 0x2b, 0x51, 0xbe, 0x59, 0x4b, 0x1e, 0xbe,
  0xc3, 0x66, 0x20, 0xbe, 0x63, 0x98, 0x80, 0xbe, 0xd2, 0x22, 0xbd, 0x3d,
  0xe6, 0x48, 0xd1, 0xbd, 0x9e, 0x4c, 0x4a, 0xbe, 0xef, 0x80, 0x98, 0xbe,
  0x30, 0xae, 0x3f, 0x3e, 0xeb, 0x90, 0x04, 0xbe, 0xa7, 0xea, 0x6f, 0x3e,
  0xee, 0xdd, 0x91, 0x3d, 0x4a, 0x6a, 0xad, 0x3e, 0x5b, 0xa5, 0x50, 0xbd,
  0x1a, 0xf5, 0x90, 0x3e, 0xc5, 0x8e, 0xb5, 0x3e, 0x7d, 0x4e, 0x36, 0xbe,
  0xc8, 0x1f, 0xe9, 0xbd, 0x92, 0xe0, 0x55, 0x3e, 0x9c, 0x41, 0xae, 0xbe,
  0x0b, 0x8c, 0xc3, 0x3d, 0x5f, 0x01, 0xc1, 0x3d, 0x4c, 0xbb, 0x86, 0x3e,
  0x4d, 0xdf, 0x2c, 0xbe, 0x04, 0xca, 0xab, 0x3e, 0x52, 0x81, 0x10, 0xbe,
  0x2f, 0xca, 0x68, 0x3e, 0x02, 0x87, 0x98, 0xbe, 0xff, 0xe9, 0x10, 0x3e,
  0xb0, 0x73, 0x90, 0xbb, 0x0e, 0xca, 0x46, 0x3d, 0x49, 0x2f, 0x93, 0x3e,
  0x3a, 0xcb, 0x7a, 0xbe, 0x3b, 0xc8, 0xc5, 0x3e, 0x67, 0x0a, 0x46, 0xbe,
  0xfa, 0x66, 0xd7, 0x3d, 0xc9, 0x4e, 0x8f, 0xbe, 0x9b, 0xaa, 0xbd, 0xbe,
  0x3e, 0xa0, 0x7c, 0xbe, 0xfc, 0x05, 0x7b, 0xbe, 0x06, 0x72, 0xd3, 0xbd,
  0xdf, 0x57, 0xcf, 0xbd, 0x1e, 0xae, 0x34, 0x3d, 0x15, 0x36, 0x86, 0x3e,
  0xdf, 0x6b, 0xa1, 0x3e, 0xa5, 0xdc, 0x00, 0xbe, 0xb2, 0xa2, 0x5e, 0x3e,
  0x05, 0x50, 0x9f, 0xbe, 0xc1, 0x55, 0x87, 0x3e, 0xe2, 0x2c, 0x10, 0x3e,
  0xb0, 0x81, 0x66, 0xbe, 0xc5, 0xf2, 0x19, 0xbe, 0x6b, 0x9b, 0x56, 0xbe,
  0x3a, 0xff, 0x72, 0xbd, 0x9b, 0x21, 0x06, 0xbe, 0xa3, 0x1a, 0x59, 0x3e,
  0x99, 0xc1, 0xcb, 0x3e, 0xed, 0x0b, 0x2c, 0xbd, 0x24, 0x01, 0x9e, 0x3e,
  0xef, 0xeb, 0xf7, 0x3d, 0xc7, 0x90, 0x39, 0xbd, 0x39, 0xa8, 0x4d, 0x3e,
  0x51, 0xa0, 0x79, 0xbd, 0x5d, 0x4a, 0x47, 0xbe, 0x47, 0x32, 0x98, 0xbe,
  0x25, 0x20, 0x88, 0x3e, 0x4d, 0x4f, 0x91, 0xbe, 0x51, 0xfb, 0x1f, 0xbc,
  0x73, 0x56, 0xac, 0x3a, 0x14, 0xfb, 0xac, 0xbc, 0x2d, 0xc9, 0xcb, 0x3d,
  0xfc, 0x2e, 0x61, 0x3e, 0x7e, 0xb3, 0xa8, 0xbe, 0xfc, 0x83, 0x96, 0xbe,
  0xcc, 0x96, 0x22, 0xbe, 0x4a, 0x22, 0x68, 0xbe, 0x71, 0xf0, 0x12, 0x3e,
  0x90, 0x73, 0xc0, 0xbe, 0x9b, 0x62, 0x91, 0xbe, 0x6a, 0xfc, 0xce, 0x3e,
  0x58, 0x4b, 0xa5, 0x3e, 0x72, 0xff, 0xe8, 0x3c, 0x45, 0x9a, 0xb5, 0xbd,
  0xe9, 0x36, 0x39, 0x3e, 0xfb, 0x04, 0xa3, 0x3e, 0x36, 0xba, 0xfc, 0x3c,
  0x56, 0x99, 0x97, 0xbd, 0x71, 0x2e, 0x83, 0x3e, 0xfe, 0x4c, 0xda, 0x3d,
  0xcb, 0xb5, 0x55, 0x3d, 0x86, 0x5f, 0x79, 0xbe, 0x8b, 0x25, 0x93, 0x3d,
  0x7e, 0xd8, 0x6f, 0x3e, 0x46, 0x60, 0xbc, 0x3d, 0x93, 0xa8, 0xad, 0x3e,
  0x72, 0xbb, 0x19, 0x3e, 0x2d, 0xc7, 0x96, 0xbe, 0x92, 0x6a, 0x0c, 0x3e,
  0xbb, 0x15, 0x1e, 0xbe, 0xb7, 0xc0, 0xc2, 0x3d, 0xfc, 0x79, 0x87, 0xbe,
  0xbe, 0x64, 0x2f, 0xbe, 0xa7, 0xc6, 0x06, 0x3e, 0xde, 0x57, 0x87, 0x3c,
  0x48, 0x9c, 0xd8, 0x3c, 0x8a, 0x48, 0x86, 0xbd, 0x8f, 0x8f, 0x7f, 0x3e,
  0x46, 0xbe, 0x8a, 0xbd, 0xfc, 0x42, 0x8e, 0x3e, 0xfe, 0x63, 0xbb, 0x3e,
  0xf1, 0x2a, 0x8e, 0xbc, 0x0f, 0x71, 0x0e, 0x3e, 0x47, 0xcf, 0x45, 0xbd,
  0xe3, 0x37, 0x90, 0xbe, 0x34, 0x8d, 0xf0, 0xbd, 0x3a, 0xcd, 0x5c, 0x3d,
  0xa6, 0x7f, 0x88, 0xbe, 0xea, 0xe1, 0x2a, 0x3e, 0x5b, 0xd0, 0x14, 0x3e,
  0x84, 0x9b, 0x34, 0xbe, 0xa4, 0xa7, 0x42, 0x3e, 0x9e, 0xca, 0x10, 0xbe,
  0xb0, 0x48, 0xfa, 0x3d, 0x8c, 0xcc, 0x4c, 0x3e, 0x31, 0xd1, 0x02, 0x3e,
  0x8c, 0x3f, 0xa0, 0x3e, 0xf7, 0x57, 0x6e, 0x3d, 0x3f, 0x30, 0x03, 0x3e,
  0x4c, 0x16, 0xdc, 0xbb, 0xb6, 0xba, 0x21, 0xbe, 0xbb, 0xea, 0x62, 0x3d,
  0x1e, 0x79, 0x98, 0x3e, 0x71, 0x96, 0x8d, 0xbe, 0xa2, 0x21, 0xa0, 0x3d,
  0x88, 0x03, 0xb1, 0x3d, 0x98, 0x53, 0x8d, 0x3e, 0x27, 0xd7, 0xaa, 0x3e,
  0x87, 0x52, 0xbc, 0x3e, 0x3e, 0x6f, 0x73, 0xbe, 0x0b, 0xd2, 0x9a, 0x3e,
  0x7a, 0x2a, 0xbd, 0x3e, 0xb8, 0x6d, 0xb9, 0x3e, 0x8b, 0xf8, 0x9c, 0x3e,
  0x98, 0x1f, 0xbf, 0xbe, 0xe1, 0x1d, 0x1e, 0x3e, 0x74, 0x43, 0x7d, 0x3e,
  0x29, 0x78, 0x40, 0x3d, 0x3f, 0x11, 0x10, 0xbe, 0xe8, 0x0a, 0xb8, 0x3e,
  0xcc, 0x95, 0xdb, 0x3d, 0xa7, 0x1b, 0x51, 0x3e, 0xfa, 0xd9, 0x14, 0x3e,
  0xed, 0xb7, 0x0c, 0x3e, 0x97, 0xcf, 0x0f, 0x3e, 0xb6, 0x1d, 0x09, 0x3e,
  0xb1, 0x1f, 0xd0, 0x3d, 0x6e, 0xa4, 0x7c, 0x3e, 0xbb, 0x50, 0xd6, 0x3b,
  0x25, 0x0d, 0xe9, 0xbd, 0x2e, 0x93, 0xbd, 0x3d, 0x1c, 0x5e, 0xb6, 0x3e,
  0x97, 0xab, 0xf8, 0x3d, 0x71, 0xcd, 0xfc, 0x3d, 0xe6, 0xf6, 0x78, 0x3e,
  0x85, 0xb9, 0xa0, 0x3e, 0x8f, 0x0d, 0xc4, 0xbd, 0x7d, 0x36, 0x9e, 0xbd,
  0xc7, 0xc2, 0x2f, 0x3e, 0xf0, 0xc1, 0x9d, 0xbe, 0x69, 0x4d, 0x24, 0x3e,
  0xce, 0x04, 0xe7, 0x3c, 0xf5, 0x65, 0xe7, 0xbd, 0x1c, 0x78, 0x2d, 0xbd,
  0xc1, 0xcd, 0xd3, 0xbd, 0xe2, 0xbb, 0x6d, 0xbe, 0x7b, 0xa3, 0xc6, 0x3d,
  0x9d, 0x71, 0x9e, 0xbe, 0x3a, 0x12, 0x94, 0xbe, 0x21, 0x14, 0xa1, 0xbe,
  0x6e, 0x0c, 0xdb, 0x3d, 0x90, 0xe8, 0x3e, 0x3c, 0x8b, 0x92, 0x8b, 0xbd,
  0x21, 0x8c, 0xc5, 0x3d, 0x8d, 0xcf, 0x31, 0xbd, 0xcd, 0xca, 0x9a, 0xbe,
  0x32, 0x4c, 0xab, 0x3e, 0xaa, 0x2b, 0x2c, 0xbe, 0x78, 0xb6, 0xc3, 0xbe,
  0x53, 0xd5, 0x5d, 0xbe, 0x52, 0x32, 0x94, 0x3e, 0xc9, 0x4e, 0x29, 0xbe,
  0x4c, 0x20, 0xac, 0x3d, 0x1b, 0xcc, 0x15, 0xbe, 0x37, 0xe8, 0x41, 0x3e,
  0xc8, 0xb1, 0xb9, 0xbe, 0x12, 0xf3, 0x99, 0x3d, 0x81, 0xb3, 0x2e, 0x3d,
  0x56, 0x81, 0x42, 0x3e, 0x52, 0xde, 0x80, 0xbe, 0x80, 0xd5, 0x4c, 0x3e,
  0x3e, 0x5b, 0xfd, 0xbd, 0x37, 0x80, 0xe3, 0xbd, 0x1b, 0x4b, 0x91, 0xbe,
  0x47, 0x74, 0x75, 0xbe, 0x6b, 0x6d, 0x73, 0xbe, 0x03, 0x50, 0x0e, 0xbe,
  0xed, 0x25, 0x2c, 0xbe, 0x23, 0xf5, 0x76, 0xbd, 0x3e, 0xd9, 0x97, 0xbe,
  0x30, 0xe4, 0x9e, 0x3e, 0x75, 0x2e, 0x14, 0x3d, 0xb4, 0x91, 0xe3, 0x3d,
  0xeb, 0x9b, 0x1c, 0x3e, 0x5f, 0x70, 0x74, 0xbe, 0xa8, 0x11, 0xfa, 0xbc,
  0x86, 0xdb, 0x9f, 0xbe, 0x60, 0xae, 0x91, 0x3e, 0xdf, 0xb5, 0x34, 0x3e,
  0x8d, 0x33, 0x82, 0x3e, 0x64, 0x31, 0x7d, 0xbe, 0x8f, 0x15, 0x42, 0x3e,
  0xcd, 0x77, 0x98, 0xbe, 0xf7, 0xab, 0x3e, 0xbe, 0x37, 0x23, 0x8e, 0xbd,
  0x22, 0x9b, 0xd5, 0xbd, 0x6d, 0xb7, 0xf9, 0xbd, 0xf5, 0xf7, 0xa9, 0xbd,
  0xc4, 0xe6, 0xdb, 0x3a, 0xfb, 0x00, 0x80, 0x3c, 0x27, 0xd9, 0x01, 0xbe,
  0xc6, 0xd6, 0x22, 0xbd, 0xf1, 0xde, 0x99, 0xbe, 0xee, 0x2e, 0xd7, 0x3e,
  0x12, 0x9d, 0x4e, 0x3e, 0xdf, 0xcd, 0xca, 0xbe, 0x93, 0x28, 0x39, 0x3e,
  0xf9, 0xeb, 0x9c, 0xbe, 0x4c, 0xe0, 0x48, 0xbe, 0x6e, 0xa8, 0x91, 0x3d,
  0x1a, 0x1f, 0x6d, 0xbd, 0xa9, 0xf2, 0x86, 0x3e, 0x55, 0xf3, 0x96, 0x3c,
  0x92, 0x64, 0x44, 0xbd, 0xce, 0xd8, 0xce, 0xbd, 0xf7, 0xa7, 0x90, 0xbe,
  0x1c, 0xce, 0x80, 0x3e, 0x63, 0xe5, 0x44, 0x3e, 0x13, 0x1b, 0x3c, 0xbe,
  0x1f, 0xa2, 0x9b, 0x3e, 0xaa, 0x3e, 0x07, 0x3e, 0xac, 0xe7, 0x7d, 0x3e,
  0x1f, 0xaf, 0xac, 0xbc, 0x9c, 0x35, 0x57, 0x3d, 0xb1, 0x4a, 0xf3, 0xbd,
  0x86, 0xa0, 0x38, 0x3e, 0xd5, 0xbb, 0xc6, 0xbc, 0x5b, 0x40, 0x41, 0x3d,
  0x8c, 0xec, 0x63, 0x3e, 0x3b, 0xaa, 0xd2, 0x3e, 0xe3, 0x19, 0x57, 0xbe,
  0x42, 0x7b, 0xd9, 0x3d, 0x64, 0xa1, 0xa0, 0xbe, 0x63, 0xcd, 0xa6, 0x3d,
  0x6f, 0x4b, 0x12, 0x3e, 0xf2, 0xd2, 0xcc, 0xbd, 0xf1, 0x09, 0x7d, 0xbd,
  0x96, 0x55, 0x05, 0x3d, 0xfe, 0x87, 0xa1, 0x3d, 0x35, 0x3d, 0x24, 0x3e,
  0xcc, 0x10, 0xa7, 0xbe, 0x6b, 0x05, 0xac, 0x3e, 0x77, 0xe4, 0xbb, 0x3e,
  0xd4, 0x2e, 0x98, 0x3e, 0xea, 0x6f, 0xbd, 0xbc, 0xec, 0x02, 0xc8, 0x3c,
  0x3d, 0xcd, 0xf7, 0xbc, 0xb1, 0x98, 0x4b, 0x3c, 0x4f, 0x46, 0x67, 0xbe,
  0x35, 0xe7, 0xb3, 0x3e, 0x44, 0x1f, 0x2a, 0x3e, 0xf7, 0xdc, 0xb1, 0x3e,
  0xbe, 0x65, 0x29, 0xbe, 0xbb, 0xc0, 0xa8, 0x3d, 0x17, 0x9e, 0xb2, 0xbe,
  0x94, 0x9b, 0x1d, 0xbe, 0xf3, 0x5a, 0xa4, 0xbe, 0xfd, 0x9a, 0x84, 0x3e,
  0xa9, 0xfb, 0x63, 0xbe, 0x3c, 0x39, 0x79, 0x3e, 0x27, 0x5d, 0xc1, 0xbb,
  0x24, 0x26, 0xce, 0xbe, 0x5b, 0xd3, 0x7f, 0xbe, 0x39, 0x42, 0xfc, 0x3d,
  0x92, 0x08, 0x73, 0x3e, 0x85, 0xfa, 0x31, 0x3e, 0x21, 0xec, 0x8e, 0xbe,
  0xff, 0x56, 0x65, 0x3e, 0x18, 0x13, 0x58, 0x3e, 0xc6, 0x3a, 0x16, 0x3d,
  0xae, 0x6e, 0x17, 0xbe, 0x1d, 0x1d, 0x9f, 0xbe, 0x8b, 0xa0, 0x65, 0xbe,
  0xa9, 0xad, 0x98, 0xbe, 0x14, 0x71, 0x3c, 0xbe, 0x7e, 0x9d, 0xa2, 0x3d,
  0x08, 0xe1, 0x36, 0x3e, 0xbc, 0xf2, 0x59, 0x3e, 0x67, 0xd4, 0x04, 0x3e,
  0x01, 0x9a, 0xb7, 0xbe, 0xdf, 0xab, 0x37, 0xbe, 0xe5, 0x02, 0x78, 0x3e,
  0x5b, 0xaa, 0x29, 0xbd, 0x72, 0x60, 0xaf, 0xbd, 0x13, 0xea, 0x53, 0xbe,
  0x89, 0xd4, 0xa1, 0xbe, 0x2f, 0xb8, 0xb9, 0xbd, 0xa5, 0xbf, 0x78, 0xbe,
  0x6a, 0x70, 0x96, 0xbe, 0x2b, 0x72, 0x4a, 0xbe, 0xdf, 0x08, 0xfc, 0xbd,
  0xcc, 0x9a, 0x3f, 0x3e, 0x83, 0x7a, 0xb3, 0x3d, 0xa8, 0xf0, 0xff, 0x3d,
  0x90, 0xb1, 0xb4, 0xbd, 0xf9, 0x74, 0xa6, 0xbd, 0x8b, 0x6e, 0xbe, 0x3c,
  0x50, 0xfa, 0xaf, 0x3c, 0x33, 0xa3, 0x26, 0xbe, 0x64, 0xfc, 0xcc, 0xbe,
  0xb4, 0x2b, 0xa6, 0xbe, 0xb4, 0xd3, 0x9a, 0x3e, 0xa1, 0xc0, 0x8e, 0xbe,
  0x13, 0x53, 0x1f, 0x3b, 0x80, 0xbc, 0xa6, 0x3e, 0x16, 0xb8, 0x8b, 0x3e,
  0x2f, 0x21, 0x97, 0xbe, 0x20, 0xc6, 0xa9, 0x3e, 0xfe, 0x41, 0x5a, 0xbe,
  0x5c, 0xaa, 0x88, 0xbe, 0x6f, 0x63, 0x9b, 0xbe, 0x9f, 0x13, 0xb7, 0x3e,
  0x0d, 0x67, 0x3b, 0xbd, 0x2c, 0x5b, 0xa0, 0x3c, 0x1a, 0x07, 0xc3, 0x3e,
  0x7a, 0xe8, 0xc7, 0x3d, 0x46, 0xe4, 0x80, 0xbe, 0x4f, 0xc1, 0x44, 0xbe,
  0x26, 0x0a, 0x7e, 0x3e, 0xfe, 0x87, 0x56, 0xbe, 0xda, 0x1b, 0x73, 0xbe,
  0xd4, 0x1e, 0xed, 0x3c, 0xcc, 0x84, 0x83, 0xbe, 0x90, 0x4c, 0x0c, 0x3e,
  0x0a, 0xf7, 0xff, 0xff, 0x04, 0x00, 0x00, 0x00, 0x80, 0x00, 0x00, 0x00,
  0xba, 0x06, 0xc6, 0x3b, 0xbf, 0xa7, 0x42, 0x3d, 0x68, 0xcd, 0xdb, 0x3c,
  0x6a, 0xe0, 0x60, 0x3d, 0x68, 0x1b, 0xa7, 0xbc, 0x6b, 0x3f, 0x45, 0x3d,
  0x4d, 0xc4, 0x5c, 0xbd, 0x88, 0x32, 0x81, 0x3d, 0x02, 0x76, 0xf8, 0x3c,
  0x2b, 0xb0, 0x7e, 0x3d, 0x08, 0xf4, 0xbf, 0xbb, 0xdf, 0xef, 0xdb, 0x3c,
  0x42, 0xdd, 0x43, 0x3d, 0xb8, 0x77, 0x0f, 0x3d, 0x45, 0x4c, 0x07, 0x3c,
  0x45, 0x46, 0xfd, 0xbc, 0x0a, 0xc4, 0x5c, 0x3d, 0xb0, 0xfd, 0x6c, 0xbc,
  0x34, 0xe7, 0x7f, 0x3d, 0x53, 0xe6, 0x49, 0xba, 0xe9, 0x74, 0x47, 0x3d,
  0x39, 0x98, 0x01, 0xbb, 0xac, 0x58, 0x5e, 0x3d, 0x25, 0x83, 0x01, 0xbd,
  0xf1, 0x39, 0x7e, 0x3d, 0x12, 0xcd, 0x29, 0x3d, 0xf2, 0x29, 0x7a, 0xba,
  0x9b, 0x73, 0x5b, 0x3d, 0x0d, 0x48, 0x2b, 0xbd, 0x41, 0xc5, 0x99, 0x3d,
  0xdb, 0xab, 0x42, 0x3c, 0xaf, 0x99, 0x17, 0x3d, 0x96, 0xf7, 0xff, 0xff,
  0x04, 0x00, 0x00, 0x00, 0x40, 0x00, 0x00, 0x00, 0x83, 0x74, 0x81, 0xbc,
  0x36, 0x36, 0x89, 0x3d, 0x34, 0x5d, 0xe8, 0xbc, 0xf6, 0xc3, 0x70, 0x3d,
  0x68, 0x1a, 0xab, 0xbc, 0xf2, 0xd4, 0x13, 0xbc, 0xfd, 0x13, 0x45, 0x3d,
  0x88, 0x84, 0x17, 0xbd, 0x44, 0x4c, 0xf0, 0x3c, 0x89, 0xa6, 0xda, 0x3c,
  0x5e, 0x06, 0x84, 0x3c, 0x12, 0x65, 0x26, 0x3d, 0xad, 0x26, 0x50, 0x3d,
  0xc5, 0xca, 0x9b, 0xbc, 0xd4, 0x95, 0xe3, 0xbc, 0xfc, 0x43, 0x3b, 0xbc,
  0xe2, 0xf7, 0xff, 0xff, 0x04, 0x00, 0x00, 0x00, 0x04, 0x00, 0x00, 0x00,
  0x9a, 0xde, 0xbc, 0x3c, 0xf2, 0xf7, 0xff, 0xff, 0x04, 0x00, 0x00, 0x00,
  0x00, 0x08, 0x00, 0x00, 0xa1, 0xc7, 0x8e, 0x3d, 0xfd, 0x0e, 0x62, 0xbe,
  0x75, 0x51, 0x3c, 0xbe, 0x61, 0x10, 0x5d, 0x3d, 0xa0, 0x4a, 0x0c, 0x3c,
  0x2c, 0x51, 0x26, 0x3e, 0x80, 0xbb, 0x3a, 0x3d, 0x6e, 0x9f, 0x70, 0xbe,
  0xf4, 0x56, 0xf2, 0x3d, 0xa8, 0x18, 0x4b, 0xbe, 0x80, 0xb2, 0xc3, 0xbc,
  0xa9, 0x26, 0x3b, 0xbe, 0x1f, 0x17, 0xdc, 0x3d, 0xfc, 0x3d, 0xe7, 0x3d,
  0xde, 0xfb, 0x9d, 0xbe, 0x4f, 0xfe, 0x89, 0xbe, 0x7c, 0x93, 0x33, 0xbe,
  0x89, 0xbc, 0x60, 0xbe, 0x51, 0x37, 0x92, 0xbe, 0x07, 0xc8, 0xa3, 0x3e,
  0xe9, 0x14, 0x49, 0xbe, 0x08, 0x10, 0x68, 0x3e, 0xcd, 0xed, 0x10, 0xbe,
  0xb8, 0x77, 0x33, 0x3d, 0x57, 0xc3, 0xa9, 0x3e, 0xd0, 0x9b, 0x08, 0xbc,
  0x20, 0x22, 0x1d, 0xbe, 0x55, 0x3e, 0xce, 0x3c, 0xda, 0xbf, 0x44, 0xbe,
  0x2a, 0xc2, 0xa9, 0xbe, 0xe6, 0x66, 0xbb, 0xbd, 0x44, 0xda, 0xa0, 0xbe,
  0xbb, 0x02, 0xd2, 0x3e, 0x4b, 0x47, 0xc5, 0x3e, 0x5a, 0xde, 0xa9, 0xbd,
  0x64, 0xda, 0x89, 0x3c, 0x33, 0x9b, 0x86, 0xbe, 0x10, 0x73, 0xbe, 0xbe,
  0xb8, 0x30, 0x65, 0x3d, 0xe9, 0x8a, 0x70, 0x3e, 0x33, 0xad, 0x9f, 0xbe,
  0xcb, 0xb9, 0x25, 0x3c, 0xac, 0xae, 0x80, 0x3e, 0xe6, 0xcf, 0x30, 0xbe,
  0x54, 0xab, 0xc9, 0x3e, 0xef, 0x4b, 0x82, 0xbe, 0xbc, 0x25, 0x62, 0xbd,
  0x84, 0x9e, 0x03, 0xbd, 0x10, 0xce, 0xb0, 0x3e, 0xf3, 0xdb, 0xc2, 0xbd,
  0xcf, 0x06, 0x36, 0xbe, 0x26, 0x6a, 0x4d, 0xbe, 0xc1, 0x6b, 0xbf, 0x3e,
  0xd5, 0xd9, 0x6a, 0xbe, 0xab, 0x0f, 0xcd, 0x3e, 0x11, 0xbf, 0xa1, 0xbe,
  0x40, 0x6a, 0x83, 0xbe, 0xc7, 0xbc, 0xb9, 0xbd, 0x95, 0x4d, 0x5f, 0xbe,
  0x09, 0xdd, 0x25, 0xbe, 0xb8, 0x1c, 0x93, 0x3e, 0x1d, 0x74, 0x5e, 0x3e,
  0xd7, 0xb1, 0x0c, 0x3c, 0x7c, 0x5c, 0xa0, 0x3e, 0x28, 0x52, 0xdc, 0x3d,
  0x9d, 0x5c, 0x23, 0xbe, 0x98, 0x7e, 0x8e, 0xbe, 0xb7, 0xd4, 0xa2, 0x3e,
  0xde, 0x5c, 0x22, 0x3d, 0x29, 0x8c, 0x83, 0x3c, 0x23, 0x04, 0x06, 0x3d,
  0xec, 0x9f, 0xc2, 0xbe, 0x92, 0x49, 0x62, 0xbd, 0xbf, 0xc4, 0x60, 0xbe,
  0x13, 0xa9, 0x84, 0x3e, 0xae, 0x1b, 0x9b, 0x3e, 0x00, 0xa1, 0xd7, 0x3c,
  0xb5, 0x48, 0x01, 0xbe, 0xb9, 0x35, 0x03, 0x3d, 0x93, 0x21, 0x9c, 0x3c,
  0xbd, 0x90, 0x90, 0x3c, 0x76, 0x1f, 0xa1, 0xbe, 0x7c, 0xb4, 0x9b, 0x3e,
  0x0c, 0x2a, 0x75, 0x3e, 0x03, 0xcc, 0xb1, 0x3d, 0xa2, 0x2e, 0x2f, 0xbe,
  0xb5, 0xd1, 0xa3, 0xbe, 0xb8, 0x2e, 0x9f, 0x3e, 0x7d, 0x19, 0x1c, 0xbd,
  0x80, 0x49, 0x72, 0xbe, 0xd5, 0x4a, 0x38, 0x3e, 0x9f, 0x78, 0xa1, 0x3e,
  0x1b, 0x13, 0x1e, 0x3c, 0x3b, 0xe9, 0x89, 0x3e, 0x80, 0x09, 0xbc, 0xbe,
  0x95, 0x16, 0x4a, 0xbc, 0xdb, 0x47, 0xad, 0x3d, 0x72, 0xab, 0x62, 0x3e,
  0xed, 0xec, 0x7c, 0xbd, 0x4c, 0x67, 0xcd, 0xbe, 0xdc, 0x48, 0x19, 0xbe,
  0xeb, 0x61, 0x02, 0x3e, 0xe6, 0x0e, 0x2e, 0xbc, 0x3c, 0x4d, 0xa0, 0x3e,
  0x03, 0xa2, 0xeb, 0xbd, 0x36, 0x70, 0x84, 0xbe, 0xd4, 0x61, 0x9a, 0x3e,
  0x97, 0xc1, 0xb7, 0xbd, 0x7e, 0x00, 0x2f, 0xbe, 0x8e, 0x40, 0xb0, 0x3e,
  0x91, 0xeb, 0xaf, 0xbe, 0xf7, 0xba, 0x9d, 0x3b, 0x38, 0x8f, 0x3d, 0x3e,
  0xd8, 0x86, 0x47, 0x3e, 0x92, 0xdc, 0x40, 0x3d, 0x2d, 0xc5, 0x4f, 0x3c,
  0xd9, 0x64, 0x48, 0xbe, 0x1f, 0xdd, 0xce, 0x3e, 0xba, 0x5d, 0x7a, 0xbd,
  0x90, 0xeb, 0x0a, 0xbe, 0xaf, 0x1c, 0xf5, 0x3d, 0x4d, 0x68, 0x9e, 0x3e,
  0xd1, 0xd6, 0xf2, 0xba, 0x34, 0x3d, 0x66, 0x3d, 0x1a, 0x76, 0x6a, 0xbe,
  0xb1, 0xf3, 0x09, 0x3e, 0x88, 0xcf, 0x70, 0xbd, 0xc3, 0x7a, 0x52, 0xbd,
  0x65, 0xc8, 0x8f, 0xbd, 0xc9, 0x93, 0x48, 0x3e, 0xd1, 0x99, 0x1c, 0x3e,
  0xeb, 0x2d, 0x2d, 0xbe, 0xe7, 0xee, 0x89, 0x3e, 0x67, 0xa3, 0x88, 0xbe,
  0xfc, 0xbe, 0x86, 0xbe, 0xb2, 0x05, 0xb0, 0xbe, 0xf1, 0x0b, 0xa4, 0xbe,
  0x48, 0x3d, 0x31, 0xbd, 0x0d, 0x69, 0xa2, 0xbe, 0x70, 0xfc, 0x84, 0xbe,
  0xb3, 0x29, 0x6a, 0xbe, 0x6e, 0x57, 0x8a, 0xbe, 0x1b, 0x46, 0x96, 0xbd,
  0xd3, 0x09, 0x78, 0xbd, 0xf5, 0xf3, 0x8c, 0xbe, 0xc6, 0x5f, 0xc6, 0xbd,
  0x00, 0x99, 0x47, 0x3c, 0xb7, 0xb3, 0xe6, 0x3d, 0x07, 0x81, 0xb7, 0x3d,
  0xf2, 0xf1, 0x09, 0x3e, 0x42, 0x1f, 0xfc, 0xbd, 0xb3, 0x7e, 0xaa, 0x3e,
  0x1f, 0x98, 0xac, 0xbe, 0xb0, 0x3b, 0xb8, 0xbc, 0x88, 0x51, 0x9b, 0x3c,
  0x97, 0x2a, 0x12, 0x3e, 0x08, 0x07, 0x07, 0x3e, 0xf2, 0x56, 0xa3, 0xbe,
  0x25, 0x5e, 0xaa, 0x3d, 0x76, 0x3c, 0x81, 0x3d, 0xde, 0x68, 0x8a, 0x3e,
  0xb7, 0x48, 0x53, 0x3d, 0xb1, 0xee, 0xe7, 0x3d, 0x5b, 0x5f, 0xdc, 0xbc,
  0xa7, 0x23, 0x89, 0x3e, 0xcd, 0x41, 0x2c, 0x3e, 0x5e, 0x0a, 0xf4, 0xbc,
  0x19, 0x92, 0x88, 0xbe, 0xb5, 0x04, 0xed, 0xbd, 0x7b, 0x9c, 0x79, 0x3e,
  0xfb, 0x76, 0x50, 0x3e, 0x94, 0x8f, 0x96, 0xbe, 0xfd, 0xa3, 0x65, 0x3d,
  0xd8, 0x83, 0x6e, 0x3e, 0x31, 0xa2, 0x65, 0x3d, 0x14, 0xf9, 0xee, 0x3d,
  0x5d, 0x68, 0xb2, 0x3e, 0x9b, 0x72, 0xb7, 0xbd, 0xb9, 0x2b, 0x74, 0xbd,
  0x2b, 0xa8, 0x0a, 0x3e, 0x37, 0x4e, 0x02, 0x3d, 0x64, 0x6e, 0xc1, 0x3e,
  0xfd, 0xdb, 0xa2, 0xbe, 0x31, 0x53, 0x55, 0xbe, 0x75, 0x15, 0x51, 0xbc,
  0x67, 0x8b, 0x5a, 0xbe, 0x67, 0x80, 0x84, 0x3e, 0x4b, 0x6d, 0xde, 0xbc,
  0x53, 0xc2, 0xf5, 0x3b, 0x59, 0x13, 0x34, 0xbd, 0x7a, 0x43, 0xcd, 0x3e,
  0x9d, 0x6c, 0x78, 0x3e, 0xdf, 0xe9, 0x46, 0xbe, 0xb6, 0x6b, 0x7d, 0xbe,
  0x63, 0x2f, 0x85, 0x3d, 0x51, 0x3d, 0xf6, 0x3c, 0x76, 0x9e, 0x9c, 0xbe,
  0x18, 0x74, 0x4a, 0xbe, 0x56, 0x0c, 0x9c, 0xbe, 0x06, 0x79, 0x91, 0xbe,
  0x94, 0x3b, 0x6b, 0xbe, 0x4e, 0xe7, 0x99, 0x3e, 0x6e, 0x83, 0x8d, 0x3e,
  0xff, 0x92, 0xa0, 0x3e, 0xe6, 0x8b, 0x30, 0x3d, 0x52, 0x5f, 0xf9, 0xbd,
  0x56, 0x7a, 0xbd, 0x3e, 0x25, 0x5f, 0x1f, 0xbe, 0x94, 0x2b, 0x01, 0x3d,
  0xd6, 0x88, 0x29, 0xbe, 0x91, 0x13, 0xf7, 0x3d, 0x4a, 0x43, 0x3c, 0x3e,
  0x03, 0xf2, 0x3b, 0x3e, 0xb1, 0x7b, 0x5c, 0x3d, 0x88, 0xea, 0x84, 0xbe,
  0xdd, 0xac, 0x5d, 0x3e, 0x88, 0x59, 0x97, 0xbe, 0x36, 0x9d, 0x1c, 0x3d,
  0x11, 0xa1, 0xfa, 0xbd, 0x10, 0x04, 0xb5, 0x3e, 0x5d, 0xd0, 0x8b, 0x3e,
  0x40, 0x61, 0x19, 0xbe, 0x70, 0x92, 0x72, 0xbe, 0x9e, 0x5d, 0x99, 0xbd,
  0xb7, 0xee, 0x65, 0x3c, 0x1c, 0x6d, 0x7b, 0x3d, 0x17, 0x59, 0x3f, 0xbe,
  0xe9, 0x6f, 0x66, 0xbe, 0x9c, 0x6f, 0xc7, 0x3c, 0xb3, 0xab, 0x6e, 0xbe,
  0xaa, 0x83, 0x97, 0x3e, 0x00, 0xb7, 0x5b, 0xbe, 0x6b, 0x59, 0x02, 0xbe,
  0x6f, 0xea, 0x1f, 0x3e, 0x2b, 0x65, 0xe4, 0x3d, 0xf0, 0xb8, 0x43, 0x3e,
  0x47, 0xd3, 0x77, 0x3c, 0x58, 0x91, 0x41, 0xbc, 0x0e, 0xe2, 0x8e, 0x3e,
  0x70, 0xf4, 0x76, 0x3e, 0xea, 0x89, 0xef, 0xbd, 0x19, 0x2f, 0xa0, 0xbe,
  0x41, 0x21, 0xb6, 0xbc, 0xea, 0xea, 0x8a, 0x3e, 0x3b, 0x3d, 0x97, 0xbe,
  0x66, 0xe6, 0x27, 0xbd, 0x47, 0x3d, 0xac, 0x3d, 0x81, 0x2b, 0x14, 0x3e,
  0x2c, 0x78, 0x94, 0x3d, 0xdb, 0x49, 0x92, 0xbe, 0xd2, 0xac, 0x15, 0xbe,
  0xf9, 0x2f, 0x3d, 0x3e, 0x49, 0x7e, 0x56, 0xbd, 0x73, 0xf4, 0x33, 0x3e,
  0xff, 0xb1, 0x7a, 0x3e, 0xf5, 0x29, 0x72, 0xbe, 0x59, 0xb0, 0x13, 0x3e,
  0x77, 0xa0, 0xa6, 0x3e, 0xb5, 0x3f, 0xad, 0x3d, 0x3d, 0x81, 0xb9, 0xbd,
  0x45, 0xaa, 0x84, 0x3e, 0x9c, 0xc8, 0x12, 0xbd, 0x01, 0x8b, 0x6d, 0xbe,
  0x1d, 0xb2, 0xa8, 0x3d, 0xe6, 0x3d, 0x3d, 0xbe, 0xa2, 0x3c, 0xf4, 0xbd,
  0x4b, 0xf3, 0xaf, 0xbd, 0xe9, 0x47, 0xa9, 0xbe, 0xd3, 0x1e, 0x8b, 0xbd,
  0x5c, 0x9f, 0x44, 0x3e, 0x8c, 0x36, 0x84, 0xbe, 0x46, 0x97, 0x06, 0x3e,
  0xba, 0x6d, 0xb8, 0x3e, 0xa7, 0xa2, 0x4f, 0xbe, 0x90, 0x78, 0x20, 0x3e,
  0x60, 0x8c, 0xbf, 0xbe, 0xcc, 0xfc, 0x26, 0x3d, 0x71, 0xbb, 0x51, 0xbe,
  0xb9, 0x83, 0x4c, 0x3d, 0xd9, 0x3a, 0xa5, 0x3e, 0xf2, 0x39, 0x61, 0xbc,
  0xf8, 0x1b, 0xa9, 0x3e, 0xad, 0x5a, 0x9f, 0xbe, 0xda, 0x22, 0xc0, 0x3e,
  0x32, 0xda, 0x50, 0xbe, 0xfd, 0x37, 0x89, 0xbe, 0xe7, 0x97, 0x90, 0xbe,
  0xf7, 0x3a, 0xa8, 0x3e, 0xc9, 0x53, 0xbc, 0x3d, 0xd1, 0x12, 0xbf, 0x3e,
  0x22, 0xe3, 0x7d, 0xbe, 0xf4, 0x0b, 0x06, 0x3e, 0x90, 0x7a, 0x01, 0x3e,
  0x20, 0xc3, 0x19, 0x3e, 0x41, 0x0a, 0x53, 0xbe, 0x86, 0x31, 0xb9, 0x3e,
  0x3e, 0x1a, 0x90, 0x3e, 0xa1, 0x42, 0x8f, 0x3d, 0xf8, 0xd0, 0xab, 0xbd,
  0xfd, 0x92, 0xba, 0x3e, 0xc4, 0x91, 0xd7, 0x3d, 0x86, 0xcc, 0x4a, 0xbe,
  0xa1, 0xe6, 0x46, 0xbe, 0x46, 0x8b, 0xb2, 0xbd, 0xff, 0x16, 0xca, 0x3e,
  0x16, 0x44, 0x11, 0xbe, 0xd5, 0x59, 0xea, 0xbc, 0x0b, 0x99, 0x25, 0xbe,
  0x73, 0x99, 0x37, 0x3d, 0x8b, 0x3e, 0x95, 0x3e, 0xb0, 0xa9, 0xa3, 0x3e,
  0x9e, 0xed, 0x51, 0xbe, 0xe0, 0x35, 0x91, 0xbd, 0xb8, 0x07, 0xac, 0xbd,
  0xfc, 0x78, 0x81, 0xbd, 0xce, 0x15, 0x9b, 0xbe, 0x46, 0xd8, 0x03, 0xbe,
  0x2d, 0x69, 0xb9, 0x3e, 0x31, 0x7c, 0x2f, 0x3c, 0x27, 0x60, 0xc4, 0xbe,
  0x00, 0xa7, 0x53, 0xbe, 0x31, 0xe2, 0xcc, 0x3d, 0x9e, 0xbc, 0x13, 0xbe,
  0x15, 0xde, 0xa4, 0x3e, 0x28, 0x22, 0xbb, 0xbd, 0xe7, 0xa6, 0xb3, 0xbe,
  0x48, 0x88, 0x0e, 0x3d, 0xbb, 0x92, 0xab, 0xbe, 0x95, 0xa1, 0x99, 0xbe,
  0xfb, 0xee, 0x84, 0xbe, 0x3c, 0x75, 0x47, 0xbe, 0xfd, 0x9c, 0x54, 0xbe,
  0xcd, 0xce, 0x83, 0x3e, 0x79, 0xed, 0x66, 0x3e, 0xb2, 0x85, 0xc7, 0x3c,
  0x19, 0xa0, 0x90, 0x3e, 0x21, 0xbc, 0x02, 0x3e, 0x12, 0x2c, 0x95, 0xbe,
  0x96, 0x42, 0xb5, 0x3e, 0xe5, 0xe6, 0x88, 0xbe, 0x56, 0xf9, 0xce, 0x3d,
  0x06, 0x35, 0x59, 0x3e, 0xbb, 0xe9, 0x8f, 0x3e, 0x8c, 0xb1, 0xa9, 0x3e,
  0x0c, 0x79, 0x27, 0xbd, 0x7f, 0x92, 0xe5, 0xbd, 0xd4, 0x22, 0x5f, 0xbe,
  0xc0, 0xaf, 0x27, 0xbd, 0x73, 0x95, 0xec, 0x3d, 0xde, 0xfe, 0x54, 0xbe,
  0x07, 0x6f, 0x8a, 0x3e, 0x23, 0x6d, 0xc0, 0xbe, 0xcf, 0x50, 0x93, 0x3d,
  0x75, 0x57, 0x98, 0x3e, 0x9e, 0x91, 0x71, 0xbd, 0xab, 0x4f, 0x8f, 0x3e,
  0x17, 0xa8, 0x43, 0x3d, 0xf0, 0xfd, 0xe3, 0xbd, 0x5e, 0xec, 0x6d, 0x3e,
  0x04, 0x6f, 0xfc, 0xbd, 0x05, 0x69, 0x89, 0xbe, 0x19, 0x1b, 0x9c, 0x3e,
  0xa0, 0x67, 0x87, 0xbe, 0x67, 0x04, 0x26, 0xbe, 0x4f, 0x2e, 0xb8, 0xbb,
  0x9a, 0xd1, 0xa7, 0x3e, 0x57, 0x58, 0xbb, 0x3e, 0x85, 0xac, 0x9a, 0xbe,
  0xc2, 0x89, 0xc8, 0x3d, 0x86, 0x08, 0x7f, 0x3d, 0xcd, 0xdc, 0x4b, 0x3d,
  0x17, 0x21, 0xa8, 0x3e, 0x9f, 0x40, 0x9e, 0x3e, 0x76, 0x2e, 0x19, 0xbe,
  0x6a, 0xc7, 0xbc, 0x3e, 0x73, 0x5e, 0x96, 0xbd, 0xa2, 0xac, 0x61, 0xbe,
  0x17, 0x9b, 0x8f, 0xbe, 0x41, 0xdf, 0xbb, 0xbe, 0xd0, 0xf2, 0xad, 0xbe,
  0xee, 0x57, 0x91, 0xbc, 0x54, 0xcf, 0x59, 0x3e, 0x98, 0x10, 0x4e, 0x3e,
  0x71, 0x47, 0x51, 0x3e, 0xba, 0xc5, 0x11, 0xbd, 0x73, 0xa5, 0xb6, 0xbd,
  0x81, 0xaf, 0x7e, 0xbe, 0x39, 0x81, 0xbb, 0x3e, 0x1b, 0x77, 0x99, 0x3e,
  0x9e, 0x89, 0x58, 0xbe, 0xe3, 0x08, 0x24, 0xbe, 0xe6, 0x51, 0xaf, 0x3e,
  0x22, 0x74, 0x86, 0xbe, 0xc2, 0xff, 0x90, 0x3e, 0xd1, 0x3c, 0x30, 0xbb,
  0x76, 0xfe, 0x69, 0xbd, 0x83, 0x5c, 0x53, 0xbe, 0x65, 0xa9, 0x90, 0xbe,
  0x18, 0x4a, 0x36, 0x3e, 0x60, 0x4e, 0x53, 0xbd, 0x51, 0x64, 0x5f, 0xbe,
  0x84, 0x12, 0x05, 0x3c, 0xad, 0xb4, 0xf3, 0xbd, 0x8c, 0x7c, 0x48, 0x3e,
  0xe9, 0x9c, 0x80, 0xbe, 0x58, 0xf9, 0x8a, 0xbc, 0x94, 0x6d, 0x02, 0xbe,
  0x3f, 0xa6, 0xe3, 0x3d, 0x69, 0x29, 0x1c, 0x3e, 0x19, 0x15, 0x85, 0x3d,
  0xa2, 0x63, 0x02, 0x3e, 0x82, 0xe6, 0x9c, 0xbe, 0x08, 0x05, 0xa4, 0xbe,
  0x64, 0x31, 0xbe, 0x3e, 0x6e, 0x9c, 0xcf, 0x3d, 0x29, 0x66, 0x1d, 0x3e,
  0x6a, 0x99, 0x62, 0xbe, 0x69, 0xcf, 0xcc, 0x3a, 0xca, 0xe4, 0x32, 0xbe,
  0x5b, 0xb4, 0xa5, 0x3e, 0x7d, 0xd6, 0x98, 0x3e, 0xdf, 0xc5, 0xc4, 0xbd,
  0xff, 0x40, 0x5c, 0xbe, 0x89, 0x18, 0xa3, 0xbe, 0xfd, 0xc7, 0xd8, 0x3d,
  0x3c, 0xaa, 0x04, 0x3e, 0x0f, 0x8a, 0xa9, 0x3e, 0xfa, 0x8a, 0x65, 0xbe,
  0x6c, 0x07, 0x75, 0xbe, 0x66, 0x53, 0x94, 0xbd, 0x72, 0x36, 0x4a, 0xbe,
  0xfc, 0x0f, 0x3f, 0x3e, 0xb4, 0xaf, 0x34, 0xbe, 0x88, 0xe8, 0x3f, 0xbd,
  0xbc, 0x49, 0xa8, 0xbe, 0x9c, 0xce, 0x7e, 0x3e, 0xdb, 0x67, 0x4d, 0xbd,
  0x1c, 0x95, 0x1e, 0xbe, 0x84, 0x47, 0x9a, 0xbd, 0x1a, 0x59, 0x66, 0x3e,
  0xef, 0xa4, 0x58, 0xbe, 0x4c, 0xcc, 0x84, 0xbd, 0xe6, 0x82, 0x61, 0xbe,
  0xf9, 0xc4, 0x63, 0xbe, 0xcd, 0x25, 0xaf, 0x3d, 0x36, 0x6e, 0xf6, 0xbd,
  0x1d, 0xcf, 0xfe, 0x3d, 0xb1, 0x00, 0x41, 0x3d, 0xf1, 0x39, 0x9c, 0xbb,
  0xfc, 0xe7, 0x9c, 0xbe, 0x7d, 0x84, 0x45, 0xbe, 0xca, 0x9f, 0x4e, 0xbe,
  0x6d, 0xfd, 0x13, 0xbe, 0x58, 0xd4, 0xab, 0x3e, 0x88, 0x35, 0xc7, 0xbd,
  0x1a, 0xe9, 0x66, 0x3e, 0xc7, 0x0d, 0x4d, 0xbe, 0x12, 0x98, 0x83, 0xbc,
  0x0e, 0x35, 0xf0, 0x3d, 0x99, 0x64, 0x21, 0xbe, 0xf4, 0x96, 0xd5, 0xbc,
  0xe8, 0xda, 0x70, 0xbe, 0x14, 0x5b, 0x40, 0xbb, 0x3b, 0x57, 0xa1, 0x3e,
  0xfd, 0xc7, 0x24, 0xbd, 0x87, 0x34, 0x9e, 0x3e, 0xa8, 0xc8, 0xb9, 0xbc,
  0x74, 0xf5, 0x86, 0xbe, 0xde, 0xbd, 0xa1, 0x3e, 0x6e, 0x06, 0x3c, 0xbe,
  0x09, 0xf8, 0x87, 0xbe, 0x47, 0xbf, 0x59, 0x3e, 0xff, 0x16, 0x6c, 0xbe,
  0xb6, 0x86, 0x91, 0xbe, 0x59, 0x86, 0xad, 0x3d, 0xc9, 0x39, 0x25, 0xbc,
  0xc7, 0x44, 0x39, 0x3c, 0x1e, 0xcc, 0xed, 0x3d, 0x87, 0x30, 0x90, 0x3d,
  0x74, 0x4e, 0x3f, 0xbe, 0x7c, 0x97, 0x34, 0x3e, 0x49, 0x09, 0x2e, 0x3d,
  0x27, 0x8f, 0x8f, 0x3e, 0x76, 0xbe, 0x42, 0xbe, 0x7c, 0x9b, 0x36, 0x3e,
  0x01, 0x6f, 0x35, 0xbe, 0x4d, 0x7f, 0x87, 0xbe, 0x4c, 0x8c, 0xea, 0x3d,
  0x7d, 0x46, 0xcc, 0x3e, 0xb7, 0xb6, 0xdf, 0x3d, 0x05, 0xb3, 0x72, 0x3d,
  0xf9, 0x3f, 0xb7, 0xbe, 0x26, 0x8f, 0x96, 0xbb, 0x36, 0xa6, 0xd0, 0xbc,
  0xc1, 0x59, 0x93, 0x3e, 0x32, 0x21, 0xac, 0x3e, 0xd4, 0xc5, 0x4d, 0xbe,
  0x16, 0x2c, 0x0a, 0x3e, 0xd1, 0xea, 0x7b, 0x3e, 0xe1, 0xd7, 0x4e, 0x3e,
  0x23, 0x1d, 0xa0, 0x3e, 0x94, 0x91, 0x41, 0x3e, 0x19, 0x06, 0x81, 0xbe,
  0xad, 0x1a, 0x2d, 0x3e, 0xe7, 0x2d, 0xbb, 0x3e, 0x8c, 0x46, 0xa4, 0xbe,
  0xb2, 0x8c, 0x5c, 0xbe, 0x83, 0x9b, 0x6c, 0x3e, 0xb7, 0xbe, 0xf9, 0xbc,
  0x7f, 0x31, 0x13, 0x3e, 0x91, 0x05, 0x8b, 0x3e, 0xac, 0x28, 0x03, 0x3d,
  0x00, 0x00, 0x06, 0x00, 0x08, 0x00, 0x04, 0x00, 0x06, 0x00, 0x00, 0x00,
  0x04, 0x00, 0x00, 0x00, 0x40, 0x00, 0x00, 0x00, 0xce, 0xa7, 0xb2, 0x3d,
  0x1f, 0xcb, 0x20, 0x3f, 0x3a, 0x6b, 0x7f, 0xbe, 0x2e, 0x38, 0xd5, 0xbe,
  0x17, 0xee, 0xf4, 0x3e, 0xfe, 0x0b, 0x67, 0xbe, 0x16, 0xe2, 0xb1, 0x3e,
  0xec, 0x95, 0x92, 0xbe, 0x3c, 0x29, 0xab, 0xbe, 0x7d, 0xc0, 0x82, 0x3e,
  0xc3, 0x0c, 0x91, 0x3e, 0xa1, 0x59, 0x6f, 0x3e, 0xd0, 0x05, 0x06, 0x3f,
  0x97, 0xa0, 0x10, 0xbf, 0x8d, 0x05, 0xbf, 0xbe, 0x87, 0x26, 0x4c, 0xbe,
  0x40, 0xfb, 0xff, 0xff, 0x44, 0xfb, 0xff, 0xff, 0x0f, 0x00, 0x00, 0x00,
  0x4d, 0x4c, 0x49, 0x52, 0x20, 0x43, 0x6f, 0x6e, 0x76, 0x65, 0x72, 0x74,
  0x65, 0x64, 0x2e, 0x00, 0x01, 0x00, 0x00, 0x00, 0x14, 0x00, 0x00, 0x00,
  0x00, 0x00, 0x0e, 0x00, 0x18, 0x00, 0x14, 0x00, 0x10, 0x00, 0x0c, 0x00,
  0x08, 0x00, 0x04, 0x00, 0x0e, 0x00, 0x00, 0x00, 0x14, 0x00, 0x00, 0x00,
  0x1c, 0x00, 0x00, 0x00, 0xd8, 0x00, 0x00, 0x00, 0xdc, 0x00, 0x00, 0x00,
  0xe0, 0x00, 0x00, 0x00, 0x04, 0x00, 0x00, 0x00, 0x6d, 0x61, 0x69, 0x6e,
  0x00, 0x00, 0x00, 0x00, 0x03, 0x00, 0x00, 0x00, 0x80, 0x00, 0x00, 0x00,
  0x38, 0x00, 0x00, 0x00, 0x04, 0x00, 0x00, 0x00, 0x9a, 0xff, 0xff, 0xff,
  0x10, 0x00, 0x00, 0x00, 0x00, 0x00, 0x00, 0x08, 0x0c, 0x00, 0x00, 0x00,
  0x10, 0x00, 0x00, 0x00, 0xbc, 0xfb, 0xff, 0xff, 0x01, 0x00, 0x00, 0x00,
  0x09, 0x00, 0x00, 0x00, 0x03, 0x00, 0x00, 0x00, 0x08, 0x00, 0x00, 0x00,
  0x01, 0x00, 0x00, 0x00, 0x03, 0x00, 0x00, 0x00, 0xca, 0xff, 0xff, 0xff,
  0x10, 0x00, 0x00, 0x00, 0x00, 0x00, 0x00, 0x08, 0x10, 0x00, 0x00, 0x00,
  0x14, 0x00, 0x00, 0x00, 0xba, 0xff, 0xff, 0xff, 0x00, 0x00, 0x00, 0x01,
  0x01, 0x00, 0x00, 0x00, 0x08, 0x00, 0x00, 0x00, 0x03, 0x00, 0x00, 0x00,
  0x07, 0x00, 0x00, 0x00, 0x02, 0x00, 0x00, 0x00, 0x04, 0x00, 0x00, 0x00,
  0x00, 0x00, 0x0e, 0x00, 0x16, 0x00, 0x00, 0x00, 0x10, 0x00, 0x0c, 0x00,
  0x0b, 0x00, 0x04, 0x00, 0x0e, 0x00, 0x00, 0x00, 0x18, 0x00, 0x00, 0x00,
  0x00, 0x00, 0x00, 0x08, 0x18, 0x00, 0x00, 0x00, 0x1c, 0x00, 0x00, 0x00,
  0x00, 0x00, 0x06, 0x00, 0x08, 0x00, 0x07, 0x00, 0x06, 0x00, 0x00, 0x00,
  0x00, 0x00, 0x00, 0x01, 0x01, 0x00, 0x00, 0x00, 0x07, 0x00, 0x00, 0x00,
  0x03, 0x00, 0x00, 0x00, 0x00, 0x00, 0x00, 0x00, 0x06, 0x00, 0x00, 0x00,
  0x05, 0x00, 0x00, 0x00, 0x01, 0x00, 0x00, 0x00, 0x09, 0x00, 0x00, 0x00,
  0x01, 0x00, 0x00, 0x00, 0x00, 0x00, 0x00, 0x00, 0x0a, 0x00, 0x00, 0x00,
  0x6c, 0x03, 0x00, 0x00, 0x14, 0x03, 0x00, 0x00, 0xbc, 0x02, 0x00, 0x00,
  0x80, 0x02, 0x00, 0x00, 0x28, 0x02, 0x00, 0x00, 0xd4, 0x01, 0x00, 0x00,
  0x88, 0x01, 0x00, 0x00, 0xf8, 0x00, 0x00, 0x00, 0x60, 0x00, 0x00, 0x00,
  0x04, 0x00, 0x00, 0x00, 0xd2, 0xfc, 0xff, 0xff, 0x00, 0x00, 0x00, 0x01,
  0x14, 0x00, 0x00, 0x00, 0x1c, 0x00, 0x00, 0x00, 0x1c, 0x00, 0x00, 0x00,
  0x0a, 0x00, 0x00, 0x00, 0x34, 0x00, 0x00, 0x00, 0x02, 0x00, 0x00, 0x00,
  0xff, 0xff, 0xff, 0xff, 0x01, 0x00, 0x00, 0x00, 0xbc, 0xfc, 0xff, 0xff,
  0x1b, 0x00, 0x00, 0x00, 0x53, 0x74, 0x61, 0x74, 0x65, 0x66, 0x75, 0x6c,
  0x50, 0x61, 0x72, 0x74, 0x69, 0x74, 0x69, 0x6f, 0x6e, 0x65, 0x64, 0x43,
  0x61, 0x6c, 0x6c, 0x5f, 0x31, 0x3a, 0x30, 0x00, 0x02, 0x00, 0x00, 0x00,
  0x01, 0x00, 0x00, 0x00, 0x01, 0x00, 0x00, 0x00, 0x2a, 0xfd, 0xff, 0xff,
  0x00, 0x00, 0x00, 0x01, 0x14, 0x00, 0x00, 0x00, 0x1c, 0x00, 0x00, 0x00,
  0x1c, 0x00, 0x00, 0x00, 0x09, 0x00, 0x00, 0x00, 0x70, 0x00, 0x00, 0x00,
  0x02, 0x00, 0x00, 0x00, 0xff, 0xff, 0xff, 0xff, 0x10, 0x00, 0x00, 0x00,
  0x14, 0xfd, 0xff, 0xff, 0x54, 0x00, 0x00, 0x00, 0x73, 0x65, 0x71, 0x75,
  0x65, 0x6e, 0x74, 0x69, 0x61, 0x6c, 0x5f, 0x31, 0x2f, 0x64, 0x65, 0x6e,
  0x73, 0x65, 0x5f, 0x31, 0x5f, 0x32, 0x2f, 0x4d, 0x61, 0x74, 0x4d, 0x75,
  0x6c, 0x3b, 0x73, 0x65, 0x71, 0x75, 0x65, 0x6e, 0x74, 0x69, 0x61, 0x6c,
  0x5f, 0x31, 0x2f, 0x64, 0x65, 0x6e, 0x73, 0x65, 0x5f, 0x31, 0x5f, 0x32,
  0x2f, 0x52, 0x65, 0x6c, 0x75, 0x3b, 0x73, 0x65, 0x71, 0x75, 0x65, 0x6e,
  0x74, 0x69, 0x61, 0x6c, 0x5f, 0x31, 0x2f, 0x64, 0x65, 0x6e, 0x73, 0x65,
  0x5f, 0x31, 0x5f, 0x32, 0x2f, 0x41, 0x64, 0x64, 0x00, 0x00, 0x00, 0x00,
  0x02, 0x00, 0x00, 0x00, 0x01, 0x00, 0x00, 0x00, 0x10, 0x00, 0x00, 0x00,
  0xbe, 0xfd, 0xff, 0xff, 0x00, 0x00, 0x00, 0x01, 0x14, 0x00, 0x00, 0x00,
  0x1c, 0x00, 0x00, 0x00, 0x1c, 0x00, 0x00, 0x00, 0x08, 0x00, 0x00, 0x00,
  0x68, 0x00, 0x00, 0x00, 0x02, 0x00, 0x00, 0x00, 0xff, 0xff, 0xff, 0xff,
  0x20, 0x00, 0x00, 0x00, 0xa8, 0xfd, 0xff, 0xff, 0x4e, 0x00, 0x00, 0x00,
  0x73, 0x65, 0x71, 0x75, 0x65, 0x6e, 0x74, 0x69, 0x61, 0x6c, 0x5f, 0x31,
  0x2f, 0x64, 0x65, 0x6e, 0x73, 0x65, 0x5f, 0x31, 0x2f, 0x4d, 0x61, 0x74,
  0x4d, 0x75, 0x6c, 0x3b, 0x73, 0x65, 0x71, 0x75, 0x65, 0x6e, 0x74, 0x69,
  0x61, 0x6c, 0x5f, 0x31, 0x2f, 0x64, 0x65, 0x6e, 0x73, 0x65, 0x5f, 0x31,
  0x2f, 0x52, 0x65, 0x6c, 0x75, 0x3b, 0x73, 0x65, 0x71, 0x75, 0x65, 0x6e,
  0x74, 0x69, 0x61, 0x6c, 0x5f, 0x31, 0x2f, 0x64, 0x65, 0x6e, 0x73, 0x65,
  0x5f, 0x31, 0x2f, 0x41, 0x64, 0x64, 0x00, 0x00, 0x02, 0x00, 0x00, 0x00,
  0x01, 0x00, 0x00, 0x00, 0x20, 0x00, 0x00, 0x00, 0x9e, 0xfe, 0xff, 0xff,
  0x00, 0x00, 0x00, 0x01, 0x10, 0x00, 0x00, 0x00, 0x10, 0x00, 0x00, 0x00,
  0x07, 0x00, 0x00, 0x00, 0x28, 0x00, 0x00, 0x00, 0x24, 0xfe, 0xff, 0xff,
  0x1b, 0x00, 0x00, 0x00, 0x73, 0x65, 0x71, 0x75, 0x65, 0x6e, 0x74, 0x69,
  0x61, 0x6c, 0x5f, 0x31, 0x2f, 0x64, 0x65, 0x6e, 0x73, 0x65, 0x5f, 0x31,
  0x2f, 0x4d, 0x61, 0x74, 0x4d, 0x75, 0x6c, 0x00, 0x02, 0x00, 0x00, 0x00,
  0x20, 0x00, 0x00, 0x00, 0x0c, 0x00, 0x00, 0x00, 0xe6, 0xfe, 0xff, 0xff,
  0x00, 0x00, 0x00, 0x01, 0x10, 0x00, 0x00, 0x00, 0x10, 0x00, 0x00, 0x00,
  0x06, 0x00, 0x00, 0x00, 0x34, 0x00, 0x00, 0x00, 0x6c, 0xfe, 0xff, 0xff,
  0x27, 0x00, 0x00, 0x00, 0x73, 0x65, 0x71, 0x75, 0x65, 0x6e, 0x74, 0x69,
  0x61, 0x6c, 0x5f, 0x31, 0x2f, 0x64, 0x65, 0x6e, 0x73, 0x65, 0x5f, 0x31,
  0x2f, 0x41, 0x64, 0x64, 0x2f, 0x52, 0x65, 0x61, 0x64, 0x56, 0x61, 0x72,
  0x69, 0x61, 0x62, 0x6c, 0x65, 0x4f, 0x70, 0x00, 0x01, 0x00, 0x00, 0x00,
  0x20, 0x00, 0x00, 0x00, 0x36, 0xff, 0xff, 0xff, 0x00, 0x00, 0x00, 0x01,
  0x10, 0x00, 0x00, 0x00, 0x10, 0x00, 0x00, 0x00, 0x05, 0x00, 0x00, 0x00,
  0x38, 0x00, 0x00, 0x00, 0xbc, 0xfe, 0xff, 0xff, 0x29, 0x00, 0x00, 0x00,
  0x73, 0x65, 0x71, 0x75, 0x65, 0x6e, 0x74, 0x69, 0x61, 0x6c, 0x5f, 0x31,
  0x2f, 0x64, 0x65, 0x6e, 0x73, 0x65, 0x5f, 0x31, 0x5f, 0x32, 0x2f, 0x41,
  0x64, 0x64, 0x2f, 0x52, 0x65, 0x61, 0x64, 0x56, 0x61, 0x72, 0x69, 0x61,
  0x62, 0x6c, 0x65, 0x4f, 0x70, 0x00, 0x00, 0x00, 0x01, 0x00, 0x00, 0x00,
  0x10, 0x00, 0x00, 0x00, 0x8a, 0xff, 0xff, 0xff, 0x00, 0x00, 0x00, 0x01,
  0x10, 0x00, 0x00, 0x00, 0x10, 0x00, 0x00, 0x00, 0x04, 0x00, 0x00, 0x00,
  0x1c, 0x00, 0x00, 0x00, 0x10, 0xff, 0xff, 0xff, 0x0f, 0x00, 0x00, 0x00,
  0x61, 0x72, 0x69, 0x74, 0x68, 0x2e, 0x63, 0x6f, 0x6e, 0x73, 0x74, 0x61,
  0x6e, 0x74, 0x32, 0x00, 0x01, 0x00, 0x00, 0x00, 0x01, 0x00, 0x00, 0x00,
  0xc2, 0xff, 0xff, 0xff, 0x00, 0x00, 0x00, 0x01, 0x10, 0x00, 0x00, 0x00,
  0x10, 0x00, 0x00, 0x00, 0x03, 0x00, 0x00, 0x00, 0x1c, 0x00, 0x00, 0x00,
  0x48, 0xff, 0xff, 0xff, 0x0f, 0x00, 0x00, 0x00, 0x61, 0x72, 0x69, 0x74,
  0x68, 0x2e, 0x63, 0x6f, 0x6e, 0x73, 0x74, 0x61, 0x6e, 0x74, 0x31, 0x00,
  0x02, 0x00, 0x00, 0x00, 0x10, 0x00, 0x00, 0x00, 0x20, 0x00, 0x00, 0x00,
  0x00, 0x00, 0x16, 0x00, 0x18, 0x00, 0x14, 0x00, 0x00, 0x00, 0x10, 0x00,
  0x0c, 0x00, 0x08, 0x00, 0x00, 0x00, 0x00, 0x00, 0x00, 0x00, 0x07, 0x00,
  0x16, 0x00, 0x00, 0x00, 0x00, 0x00, 0x00, 0x01, 0x10, 0x00, 0x00, 0x00,
  0x10, 0x00, 0x00, 0x00, 0x02, 0x00, 0x00, 0x00, 0x1c, 0x00, 0x00, 0x00,
  0x9c, 0xff, 0xff, 0xff, 0x0e, 0x00, 0x00, 0x00, 0x61, 0x72, 0x69, 0x74,
  0x68, 0x2e, 0x63, 0x6f, 0x6e, 0x73, 0x74, 0x61, 0x6e, 0x74, 0x00, 0x00,
  0x02, 0x00, 0x00, 0x00, 0x01, 0x00, 0x00, 0x00, 0x10, 0x00, 0x00, 0x00,
  0x00, 0x00, 0x16, 0x00, 0x1c, 0x00, 0x18, 0x00, 0x00, 0x00, 0x14, 0x00,
  0x10, 0x00, 0x0c, 0x00, 0x00, 0x00, 0x00, 0x00, 0x08, 0x00, 0x07, 0x00,
  0x16, 0x00, 0x00, 0x00, 0x00, 0x00, 0x00, 0x01, 0x14, 0x00, 0x00, 0x00,
  0x20, 0x00, 0x00, 0x00, 0x20, 0x00, 0x00, 0x00, 0x01, 0x00, 0x00, 0x00,
  0x3c, 0x00, 0x00, 0x00, 0x02, 0x00, 0x00, 0x00, 0xff, 0xff, 0xff, 0xff,
  0x0c, 0x00, 0x00, 0x00, 0x04, 0x00, 0x04, 0x00, 0x04, 0x00, 0x00, 0x00,
  0x1d, 0x00, 0x00, 0x00, 0x73, 0x65, 0x72, 0x76, 0x69, 0x6e, 0x67, 0x5f,
  0x64, 0x65, 0x66, 0x61, 0x75, 0x6c, 0x74, 0x5f, 0x69, 0x6e, 0x70, 0x75,
  0x74, 0x5f, 0x6c, 0x61, 0x79, 0x65, 0x72, 0x3a, 0x30, 0x00, 0x00, 0x00,
  0x02, 0x00, 0x00, 0x00, 0x01, 0x00, 0x00, 0x00, 0x0c, 0x00, 0x00, 0x00,
  0x01, 0x00, 0x00, 0x00, 0x10, 0x00, 0x00, 0x00, 0x0c, 0x00, 0x0c, 0x00,
  0x0b, 0x00, 0x00, 0x00, 0x00, 0x00, 0x04, 0x00, 0x0c, 0x00, 0x00, 0x00,
  0x09, 0x00, 0x00, 0x00, 0x00, 0x00, 0x00, 0x09
};
unsigned int model_tflite_len = 5708;
