/* Copyright 2023 The TensorFlow Authors. All Rights Reserved.

Licensed under the Apache License, Version 2.0 (the "License");
you may not use this file except in compliance with the License.
You may obtain a copy of the License at

    http://www.apache.org/licenses/LICENSE-2.0

Unless required by applicable law or agreed to in writing, software
distributed under the License is distributed on an "AS IS" BASIS,
WITHOUT WARRANTIES OR CONDITIONS OF ANY KIND, either express or implied.
See the License for the specific language governing permissions and
limitations under the License.
==============================================================================*/

// Automatically created from a TensorFlow Lite flatbuffer using the command:
// xxd -i model.tflite > model.cc

// This is a standard TensorFlow Lite model file that has been converted into a
// C data array, so it can be easily compiled into a binary for devices that
// don't have a file system, such as most Arduino boards.


// The array g_model must be aligned to 16 bytes to be compatible 
// with CMSIS (Cortex Microcontroller Software Interface Standard). 
// alignas(16) directive is used to specify that the g_model array 
// should be stored in memory at an address that is a multiple of 16.
unsigned char model_ph_tflite[] = {
  0x1c, 0x00, 0x00, 0x00, 0x54, 0x46, 0x4c, 0x33, 0x14, 0x00, 0x20, 0x00,
  0x1c, 0x00, 0x18, 0x00, 0x14, 0x00, 0x10, 0x00, 0x0c, 0x00, 0x00, 0x00,
  0x08, 0x00, 0x04, 0x00, 0x14, 0x00, 0x00, 0x00, 0x1c, 0x00, 0x00, 0x00,
  0x98, 0x00, 0x00, 0x00, 0xf0, 0x00, 0x00, 0x00, 0x14, 0x11, 0x00, 0x00,
  0x24, 0x11, 0x00, 0x00, 0xf8, 0x15, 0x00, 0x00, 0x03, 0x00, 0x00, 0x00,
  0x01, 0x00, 0x00, 0x00, 0x10, 0x00, 0x00, 0x00, 0x00, 0x00, 0x0a, 0x00,
  0x10, 0x00, 0x0c, 0x00, 0x08, 0x00, 0x04, 0x00, 0x0a, 0x00, 0x00, 0x00,
  0x0c, 0x00, 0x00, 0x00, 0x1c, 0x00, 0x00, 0x00, 0x3c, 0x00, 0x00, 0x00,
  0x0f, 0x00, 0x00, 0x00, 0x73, 0x65, 0x72, 0x76, 0x69, 0x6e, 0x67, 0x5f,
  0x64, 0x65, 0x66, 0x61, 0x75, 0x6c, 0x74, 0x00, 0x01, 0x00, 0x00, 0x00,
  0x04, 0x00, 0x00, 0x00, 0x90, 0xff, 0xff, 0xff, 0x09, 0x00, 0x00, 0x00,
  0x04, 0x00, 0x00, 0x00, 0x08, 0x00, 0x00, 0x00, 0x6f, 0x75, 0x74, 0x70,
  0x75, 0x74, 0x5f, 0x30, 0x00, 0x00, 0x00, 0x00, 0x01, 0x00, 0x00, 0x00,
  0x04, 0x00, 0x00, 0x00, 0xba, 0xef, 0xff, 0xff, 0x04, 0x00, 0x00, 0x00,
  0x0d, 0x00, 0x00, 0x00, 0x69, 0x6e, 0x70, 0x75, 0x74, 0x5f, 0x6c, 0x61,
  0x79, 0x65, 0x72, 0x5f, 0x32, 0x00, 0x00, 0x00, 0x02, 0x00, 0x00, 0x00,
  0x34, 0x00, 0x00, 0x00, 0x04, 0x00, 0x00, 0x00, 0xdc, 0xff, 0xff, 0xff,
  0x0c, 0x00, 0x00, 0x00, 0x04, 0x00, 0x00, 0x00, 0x13, 0x00, 0x00, 0x00,
  0x43, 0x4f, 0x4e, 0x56, 0x45, 0x52, 0x53, 0x49, 0x4f, 0x4e, 0x5f, 0x4d,
  0x45, 0x54, 0x41, 0x44, 0x41, 0x54, 0x41, 0x00, 0x08, 0x00, 0x0c, 0x00,
  0x08, 0x00, 0x04, 0x00, 0x08, 0x00, 0x00, 0x00, 0x0b, 0x00, 0x00, 0x00,
  0x04, 0x00, 0x00, 0x00, 0x13, 0x00, 0x00, 0x00, 0x6d, 0x69, 0x6e, 0x5f,
  0x72, 0x75, 0x6e, 0x74, 0x69, 0x6d, 0x65, 0x5f, 0x76, 0x65, 0x72, 0x73,
  0x69, 0x6f, 0x6e, 0x00, 0x0d, 0x00, 0x00, 0x00, 0x20, 0x10, 0x00, 0x00,
  0x18, 0x10, 0x00, 0x00, 0xc8, 0x0f, 0x00, 0x00, 0xb0, 0x07, 0x00, 0x00,
  0x9c, 0x07, 0x00, 0x00, 0x4c, 0x07, 0x00, 0x00, 0xbc, 0x06, 0x00, 0x00,
  0xac, 0x00, 0x00, 0x00, 0xa4, 0x00, 0x00, 0x00, 0x9c, 0x00, 0x00, 0x00,
  0x94, 0x00, 0x00, 0x00, 0x74, 0x00, 0x00, 0x00, 0x04, 0x00, 0x00, 0x00,
  0x6a, 0xf0, 0xff, 0xff, 0x04, 0x00, 0x00, 0x00, 0x60, 0x00, 0x00, 0x00,
  0x10, 0x00, 0x00, 0x00, 0x00, 0x00, 0x00, 0x00, 0x08, 0x00, 0x0e, 0x00,
  0x08, 0x00, 0x04, 0x00, 0x08, 0x00, 0x00, 0x00, 0x10, 0x00, 0x00, 0x00,
  0x24, 0x00, 0x00, 0x00, 0x00, 0x00, 0x06, 0x00, 0x08, 0x00, 0x04, 0x00,
  0x06, 0x00, 0x00, 0x00, 0x04, 0x00, 0x00, 0x00, 0x00, 0x00, 0x00, 0x00,
  0x0c, 0x00, 0x18, 0x00, 0x14, 0x00, 0x10, 0x00, 0x0c, 0x00, 0x04, 0x00,
  0x0c, 0x00, 0x00, 0x00, 0x81, 0x43, 0x59, 0xe6, 0x0d, 0x5a, 0xb3, 0x12,
  0x02, 0x00, 0x00, 0x00, 0x02, 0x00, 0x00, 0x00, 0x04, 0x00, 0x00, 0x00,
  0x06, 0x00, 0x00, 0x00, 0x32, 0x2e, 0x31, 0x37, 0x2e, 0x30, 0x00, 0x00,
  0xd6, 0xf0, 0xff, 0xff, 0x04, 0x00, 0x00, 0x00, 0x10, 0x00, 0x00, 0x00,
  0x31, 0x2e, 0x35, 0x2e, 0x30, 0x00, 0x00, 0x00, 0x00, 0x00, 0x00, 0x00,
  0x00, 0x00, 0x00, 0x00, 0xe4, 0xeb, 0xff, 0xff, 0xe8, 0xeb, 0xff, 0xff,
  0xec, 0xeb, 0xff, 0xff, 0xfe, 0xf0, 0xff, 0xff, 0x04, 0x00, 0x00, 0x00,
  0x00, 0x06, 0x00, 0x00, 0xbe, 0x79, 0xae, 0xbe, 0xbf, 0xdc, 0xb4, 0xbe,
  0x60, 0x65, 0xca, 0x3e, 0x28, 0xef, 0xf9, 0x3d, 0xd4, 0xa9, 0xe5, 0x3d,
  0xcb, 0x51, 0xfe, 0xbd, 0x66, 0x3f, 0xb9, 0x3d, 0xaa, 0x1e, 0x86, 0x3e,
  0x01, 0x25, 0x83, 0xbd, 0xe5, 0x80, 0x2a, 0xbe, 0xde, 0x73, 0x81, 0x3e,
  0x8e, 0x8b, 0xb3, 0x3d, 0x04, 0x8f, 0x22, 0x3e, 0x2f, 0xc5, 0xa7, 0x3e,
  0xb7, 0x86, 0xbc, 0xbd, 0x24, 0x76, 0x53, 0xbe, 0xab, 0xba, 0xb7, 0xbe,
  0x38, 0xe3, 0x7c, 0xbd, 0xb8, 0xd5, 0xab, 0xbe, 0x03, 0x3b, 0xca, 0x3d,
  0x8a, 0x65, 0xa1, 0xbd, 0xa6, 0xd3, 0x9b, 0xbd, 0xec, 0xf0, 0x6c, 0x3e,
  0x0e, 0x02, 0x97, 0xbe, 0x4d, 0x67, 0xcc, 0x3d, 0xdc, 0x60, 0x96, 0xbe,
  0x8d, 0x92, 0x32, 0xbe, 0xd8, 0xa9, 0x89, 0x3e, 0xe6, 0x5f, 0x0b, 0x3d,
  0x54, 0x89, 0x88, 0x3e, 0xa5, 0xe4, 0x3d, 0x3d, 0xab, 0x3c, 0xba, 0x3e,
  0x34, 0xe5, 0xc2, 0x3e, 0x48, 0xe5, 0x51, 0xbe, 0xc3, 0xcf, 0x8a, 0xbe,
  0xf8, 0x43, 0x67, 0x3d, 0xa6, 0x7e, 0x88, 0xbd, 0x5c, 0x58, 0x6f, 0x3d,
  0x4d, 0x51, 0xa9, 0xbe, 0x56, 0xb4, 0x11, 0x3e, 0x67, 0x31, 0x1c, 0xbe,
  0x5d, 0x61, 0xfe, 0x3c, 0xa3, 0x94, 0x57, 0xbe, 0x86, 0xd5, 0xb4, 0x3e,
  0x95, 0x85, 0x45, 0x3e, 0x7c, 0x2d, 0x4a, 0xbe, 0xcd, 0xff, 0x99, 0xbd,
  0xc4, 0x64, 0x90, 0x3e, 0x92, 0x63, 0xb4, 0xbe, 0x8a, 0xb2, 0x15, 0x3e,
  0xaf, 0xee, 0x92, 0xbe, 0xd5, 0xc9, 0x9e, 0x3e, 0x60, 0xfa, 0xb1, 0x3e,
  0x6e, 0x1b, 0x45, 0x3d, 0x3c, 0xd1, 0xb7, 0x3d, 0x22, 0x5e, 0x82, 0xbd,
  0x76, 0x58, 0x33, 0x3e, 0x97, 0xc7, 0x63, 0xbe, 0x62, 0xaa, 0x49, 0x3e,
  0xa4, 0x50, 0x56, 0x3e, 0xd9, 0xc7, 0x57, 0x3c, 0x48, 0x57, 0x70, 0x3c,
  0x4a, 0x8d, 0xb5, 0xbd, 0x8e, 0x18, 0x7b, 0x3e, 0x5b, 0x96, 0x95, 0x3d,
  0xa8, 0xf5, 0x4b, 0x3e, 0xd0, 0x8d, 0xde, 0xbd, 0x86, 0x0a, 0x0a, 0xbe,
  0x50, 0xda, 0xdd, 0xba, 0xd9, 0xfd, 0xba, 0x3d, 0x49, 0x69, 0x4d, 0x3e,
  0xcc, 0x97, 0xaf, 0x3e, 0x13, 0x39, 0x06, 0xbc, 0xf8, 0x3d, 0x00, 0xbe,
  0x5d, 0x9c, 0xb8, 0x3e, 0x78, 0x06, 0xb1, 0x3d, 0x00, 0x60, 0xb4, 0x3d,
  0x49, 0x14, 0xcc, 0x3d, 0x3f, 0x95, 0xbd, 0x3e, 0x68, 0x48, 0xdc, 0x3c,
  0x4c, 0x84, 0xfc, 0x3b, 0x88, 0x47, 0x40, 0x3e, 0x09, 0x5f, 0x4f, 0xbe,
  0xad, 0x53, 0xae, 0x3e, 0x6e, 0x56, 0xf1, 0x3d, 0x7f, 0x0a, 0xa1, 0xbe,
  0xab, 0xbf, 0xb7, 0x3d, 0x1f, 0x48, 0x0c, 0x3e, 0x3f, 0xbc, 0x40, 0x3e,
  0x22, 0x80, 0xa0, 0x3e, 0xca, 0x83, 0x2f, 0x3e, 0x12, 0xa4, 0x4f, 0x3e,
  0x4b, 0x0e, 0x31, 0x3d, 0x90, 0x07, 0x56, 0x3d, 0x3f, 0x95, 0x77, 0xbd,
  0x4e, 0x28, 0x92, 0x3e, 0xf7, 0x71, 0x96, 0xbe, 0x52, 0xce, 0xf9, 0x3d,
  0x75, 0xf8, 0xea, 0x3d, 0x10, 0x77, 0x21, 0x3e, 0x61, 0x4b, 0x1d, 0x3e,
  0xb1, 0x85, 0x6a, 0xbe, 0x54, 0x47, 0x7a, 0xbd, 0x5b, 0xc4, 0x3f, 0xbe,
  0x57, 0xc8, 0x8b, 0xbe, 0xe8, 0x3e, 0x44, 0x3e, 0x7a, 0xac, 0x96, 0x3e,
  0xa4, 0x4f, 0x99, 0x3e, 0xad, 0xd8, 0xf4, 0xbd, 0x2f, 0x9a, 0x6b, 0x3e,
  0x8e, 0x71, 0x1d, 0xbe, 0xbd, 0xaa, 0xaf, 0xbd, 0xf6, 0xf9, 0xd4, 0xbe,
  0x43, 0x9a, 0x80, 0xbd, 0x98, 0xd9, 0x3d, 0x3e, 0x39, 0xbd, 0x2a, 0x3d,
  0x75, 0x3b, 0xed, 0x3c, 0xad, 0xcb, 0x6b, 0xbe, 0xd6, 0x82, 0x18, 0xbe,
  0xab, 0xc3, 0x32, 0x3e, 0x7f, 0x1f, 0xa2, 0xbe, 0x85, 0x7f, 0x07, 0xbe,
  0xde, 0xf1, 0x40, 0x3d, 0x7f, 0x01, 0x36, 0x3d, 0x15, 0x2b, 0xce, 0xbe,
  0x2a, 0x9c, 0xae, 0xbe, 0xb2, 0x16, 0x37, 0x3e, 0x8b, 0x09, 0x62, 0xbd,
  0x38, 0xa4, 0x55, 0xbe, 0x1a, 0xe8, 0xbd, 0xbe, 0xd5, 0xd9, 0x3c, 0x3e,
  0x34, 0x71, 0xcd, 0x3d, 0xe8, 0x82, 0x41, 0x3e, 0x05, 0x85, 0x6e, 0xbd,
  0xe5, 0xb7, 0x8e, 0xbe, 0xae, 0xdb, 0x7d, 0x3e, 0x73, 0x60, 0x93, 0x3e,
  0x05, 0xe9, 0x93, 0x3d, 0x96, 0xa8, 0x93, 0x3e, 0x91, 0xb0, 0xb7, 0xbe,
  0xd7, 0x66, 0xf6, 0x3d, 0x1b, 0x5b, 0x0c, 0xbe, 0xdf, 0x51, 0x16, 0x3e,
  0xb8, 0xb3, 0xc5, 0x3e, 0x9f, 0xbd, 0x8d, 0xbc, 0x76, 0x0e, 0x7b, 0xbe,
  0x98, 0x59, 0x80, 0x3c, 0x93, 0x93, 0x8b, 0xbd, 0x83, 0x8a, 0xa4, 0xbe,
  0x52, 0x17, 0x7a, 0x3d, 0x87, 0xe1, 0x5d, 0xbe, 0x38, 0x2a, 0xc4, 0x3e,
  0x2d, 0xf9, 0xa8, 0x3e, 0x78, 0xa8, 0xdf, 0x3d, 0x94, 0x47, 0x83, 0x3e,
  0xf7, 0x4b, 0x9f, 0xbe, 0x25, 0xa2, 0x2b, 0xbe, 0x20, 0x67, 0xb6, 0x3d,
  0xf9, 0x4a, 0x9d, 0xbe, 0xb1, 0x0b, 0x86, 0xbe, 0x5d, 0x49, 0x6f, 0x3d,
  0xe7, 0x80, 0x9c, 0xbe, 0x9a, 0xd5, 0xbe, 0xbd, 0xe2, 0x90, 0x89, 0xbe,
  0x51, 0xe9, 0x55, 0x3e, 0xab, 0xa9, 0x01, 0xbe, 0x90, 0x1c, 0x69, 0x3e,
  0xc4, 0x34, 0xd5, 0x3e, 0x7c, 0xa7, 0x8c, 0xbe, 0xc6, 0xe3, 0x98, 0xbd,
  0xa4, 0x58, 0x9f, 0xbe, 0x38, 0xe6, 0x9a, 0x3e, 0xef, 0x1e, 0xae, 0x3d,
  0xc7, 0x6a, 0x73, 0xbe, 0xa7, 0x02, 0xbb, 0x3d, 0x00, 0x8e, 0x94, 0xbc,
  0xab, 0xe9, 0x25, 0x3e, 0x91, 0xb1, 0x02, 0xbe, 0xe8, 0xfd, 0x67, 0x3e,
  0x35, 0xf4, 0x61, 0xbe, 0x42, 0x46, 0xb7, 0xbe, 0x09, 0x30, 0xbf, 0xbe,
  0xc4, 0xaa, 0x82, 0xbd, 0x25, 0x6c, 0xb5, 0x3d, 0x70, 0x3a, 0x86, 0xbd,
  0x3b, 0x51, 0x1e, 0xbe, 0x22, 0x95, 0x85, 0x3e, 0x2c, 0x2a, 0x03, 0x3e,
  0xfb, 0xbe, 0x3f, 0x3e, 0x11, 0x30, 0xcd, 0xbd, 0xd6, 0x15, 0x62, 0x3d,
  0x17, 0x0f, 0x9f, 0x3e, 0x4c, 0x3e, 0x9e, 0x3d, 0xf4, 0x0e, 0xc9, 0xbe,
  0x8c, 0xf0, 0xa4, 0x3e, 0x4a, 0xf2, 0x75, 0xbd, 0x4a, 0x4e, 0x55, 0x3e,
  0xf4, 0x45, 0xaf, 0x3e, 0x89, 0x3f, 0xc2, 0x3d, 0xcd, 0x71, 0x05, 0xbe,
  0x86, 0x18, 0x60, 0xbd, 0x9c, 0x04, 0x68, 0xbe, 0xf4, 0x5b, 0x8b, 0xbe,
  0xe3, 0x46, 0xee, 0x3d, 0x39, 0xaf, 0x98, 0xbe, 0xa9, 0x9a, 0xd6, 0xba,
  0x9b, 0xbd, 0xbe, 0xbe, 0xc8, 0xd3, 0x61, 0x3e, 0x6c, 0x78, 0xe9, 0xbd,
  0x13, 0xa4, 0xa1, 0xbd, 0xd2, 0x3a, 0x4a, 0x3e, 0x9f, 0xf6, 0xdc, 0x3d,
  0x25, 0x49, 0x95, 0x3e, 0xfb, 0xf7, 0xa6, 0x3e, 0xe4, 0x84, 0x97, 0x3d,
  0xc1, 0xea, 0x24, 0xbe, 0xf1, 0xfa, 0x9a, 0xbe, 0x52, 0xae, 0x66, 0xbe,
  0xad, 0xf2, 0x22, 0xbe, 0xcc, 0x02, 0x94, 0x3e, 0x2b, 0xc4, 0x6b, 0x3d,
  0x23, 0x02, 0x4f, 0xbe, 0x75, 0xc0, 0x06, 0xbd, 0x6a, 0x86, 0x1e, 0xbe,
  0x3d, 0xdb, 0x92, 0x3e, 0x75, 0x39, 0x01, 0x3e, 0x04, 0xc9, 0xd1, 0x3d,
  0x89, 0x9d, 0x32, 0xbe, 0x1f, 0x90, 0x99, 0x3e, 0x1b, 0x54, 0xfb, 0x3d,
  0x19, 0x60, 0xa4, 0xbe, 0x62, 0x9e, 0x02, 0x3e, 0xee, 0x29, 0x34, 0xbe,
  0x38, 0x0a, 0x96, 0xbe, 0xf8, 0x4d, 0x86, 0x3d, 0x18, 0x49, 0x43, 0x3e,
  0x4f, 0x4d, 0x36, 0xbe, 0x31, 0xb6, 0xa0, 0x3e, 0x3a, 0xe3, 0x88, 0xbe,
  0x6e, 0x16, 0x94, 0xbe, 0xca, 0x0d, 0x2f, 0xbe, 0x3e, 0xf4, 0xf4, 0xbd,
  0x4e, 0xe6, 0x18, 0x3d, 0xc7, 0x2f, 0x79, 0x3e, 0xac, 0x93, 0x90, 0x3e,
  0x9c, 0xdc, 0x67, 0xbe, 0x56, 0x3c, 0xdc, 0x3e, 0xc8, 0x1c, 0x94, 0xbe,
  0xc1, 0x01, 0x8e, 0xbe, 0x42, 0x76, 0xd2, 0xbe, 0x01, 0xc9, 0xb7, 0x3d,
  0x1f, 0x31, 0x8a, 0xbd, 0xc2, 0x01, 0x89, 0x3e, 0xd5, 0x17, 0x76, 0x3d,
  0x3a, 0x6a, 0xaf, 0x3e, 0xa1, 0x74, 0x8d, 0xbe, 0x07, 0xdb, 0x54, 0xbd,
  0x41, 0x61, 0x7d, 0xbc, 0xe1, 0x83, 0x9d, 0xbc, 0xe0, 0x8f, 0x8d, 0xbe,
  0x9b, 0x36, 0xa7, 0xbc, 0x65, 0xba, 0x63, 0xbe, 0x2e, 0x23, 0x93, 0x3e,
  0xf3, 0x72, 0x5f, 0xbd, 0xa2, 0xe4, 0xc4, 0x3e, 0x64, 0xaa, 0x14, 0x3e,
  0x8a, 0xa7, 0x64, 0x3d, 0x7f, 0xb4, 0x73, 0x3e, 0x5c, 0x2f, 0xc3, 0x3d,
  0xf6, 0xd8, 0x00, 0xbe, 0xf6, 0x7d, 0x53, 0x3d, 0x03, 0x0c, 0xc2, 0xbe,
  0xee, 0x86, 0x0e, 0x3e, 0x39, 0x9d, 0x68, 0x3e, 0xdf, 0x55, 0x4b, 0x3e,
  0xed, 0xdc, 0xb7, 0x3e, 0x9c, 0x8f, 0xb0, 0x3e, 0xb0, 0x15, 0xda, 0xbd,
  0xe1, 0x6e, 0xe4, 0x3d, 0xee, 0x42, 0x47, 0xbe, 0x64, 0x8b, 0x95, 0x3e,
  0xc4, 0xad, 0x5e, 0xbd, 0x6e, 0x2b, 0x17, 0x3e, 0x5a, 0xaf, 0x32, 0xbe,
  0x91, 0x0d, 0x00, 0x3d, 0x97, 0xef, 0x7a, 0xbe, 0x68, 0x4f, 0x71, 0xbe,
  0x9f, 0xc5, 0xcb, 0xbe, 0xa7, 0xde, 0x7a, 0xbe, 0x8f, 0x56, 0x65, 0x3e,
  0x4a, 0x8f, 0x9f, 0x3e, 0x76, 0x09, 0xef, 0xbd, 0x47, 0x7f, 0x03, 0x3d,
  0xb2, 0xc7, 0xba, 0xbe, 0x9c, 0xdf, 0x7e, 0x3e, 0x39, 0xb1, 0x4d, 0xbe,
  0xfc, 0x80, 0xa0, 0x3e, 0x2a, 0x72, 0x9f, 0xbe, 0x1a, 0xa0, 0xc5, 0x3e,
  0xec, 0x53, 0x0f, 0xbb, 0x07, 0xdc, 0x73, 0xbe, 0x0f, 0x41, 0xa2, 0x3d,
  0x7d, 0x1f, 0xc8, 0xbd, 0xe5, 0x7f, 0xa4, 0x3e, 0x34, 0xb6, 0xd3, 0xbd,
  0xb7, 0xca, 0x96, 0xbe, 0x48, 0xab, 0x11, 0xbe, 0xa5, 0x5c, 0x6c, 0x3e,
  0x98, 0x2c, 0x27, 0x3e, 0x47, 0x3e, 0x04, 0x3e, 0x42, 0x8d, 0x6c, 0xbe,
  0x60, 0x2f, 0x9b, 0x3e, 0xec, 0x94, 0xc2, 0xbc, 0x51, 0xe4, 0x2a, 0xbd,
  0x78, 0xc7, 0x3c, 0x3c, 0xd5, 0x2f, 0x53, 0xbe, 0x8e, 0x96, 0xcf, 0xbc,
  0x5e, 0x2c, 0x12, 0xbe, 0x6e, 0x8d, 0x8b, 0xbe, 0xec, 0x87, 0x30, 0xbd,
  0xff, 0x01, 0xd5, 0x3d, 0xa9, 0x43, 0xad, 0x3d, 0xba, 0xd1, 0x5d, 0xbe,
  0x45, 0x7a, 0xaa, 0x3e, 0x71, 0x4d, 0x22, 0x3d, 0xdf, 0xde, 0xcc, 0x3e,
  0x96, 0xa6, 0x12, 0x3e, 0x78, 0xb6, 0xc9, 0xbd, 0xdd, 0x9d, 0x9b, 0xbe,
  0x0a, 0xd6, 0xfa, 0x3d, 0x22, 0xad, 0x5a, 0x3e, 0xca, 0x27, 0xad, 0xbc,
  0xc0, 0x4b, 0x83, 0x3e, 0xb2, 0xab, 0x03, 0xbe, 0x14, 0x2d, 0x9c, 0xbe,
  0xdd, 0x05, 0x4d, 0xbe, 0x46, 0x01, 0x54, 0x3e, 0x83, 0xd4, 0x87, 0x3e,
  0xc3, 0x73, 0x4b, 0xbe, 0x10, 0x0a, 0xaa, 0x3e, 0x24, 0x89, 0xcf, 0x3c,
  0x38, 0x7a, 0x19, 0xbd, 0x7e, 0xf0, 0xb9, 0x3d, 0x80, 0xde, 0xa7, 0xbe,
  0xe4, 0x57, 0x8d, 0xbd, 0xad, 0xc1, 0xa2, 0x3e, 0x31, 0x59, 0xa8, 0x3d,
  0xdb, 0xaa, 0x91, 0x3e, 0xe9, 0xaa, 0x75, 0x3e, 0x58, 0xf4, 0x8f, 0xbe,
  0x79, 0x0b, 0xb7, 0x3e, 0xf2, 0xa0, 0x83, 0x3e, 0x65, 0x38, 0x98, 0x3d,
  0x77, 0xf9, 0x9a, 0x3e, 0x0d, 0x33, 0xa8, 0xbe, 0xc6, 0x15, 0x51, 0x3c,
  0x3e, 0x6b, 0x01, 0x3e, 0x39, 0xd3, 0x93, 0x3e, 0xd9, 0x24, 0x6c, 0xbd,
  0xe3, 0x60, 0xd3, 0xbe, 0x92, 0xf9, 0xa8, 0xbe, 0x72, 0xbe, 0xda, 0x3d,
  0x48, 0x56, 0x3c, 0xbe, 0xf3, 0x55, 0x27, 0x3e, 0xa0, 0x40, 0x6d, 0x3e,
  0x4e, 0x66, 0x91, 0xbd, 0x87, 0x64, 0x96, 0xbe, 0x17, 0xfa, 0xb7, 0x3e,
  0xb9, 0xe9, 0x93, 0x3e, 0x44, 0x4a, 0xd9, 0xbd, 0xdd, 0xdf, 0x9d, 0xbe,
  0x09, 0x47, 0xc1, 0xbe, 0x26, 0x91, 0x01, 0x3d, 0xbc, 0x62, 0x3a, 0xbe,
  0x2a, 0x83, 0x9f, 0xbe, 0x80, 0x4d, 0x5e, 0xbd, 0x93, 0x0a, 0x34, 0xbd,
  0xab, 0xe0, 0x1c, 0xbc, 0xb0, 0x4a, 0xc7, 0x3e, 0xf1, 0x75, 0x5f, 0x3e,
  0x54, 0x16, 0x6e, 0xbe, 0x52, 0x0a, 0x8e, 0x3e, 0xe4, 0x64, 0xb1, 0xbe,
  0x21, 0x62, 0xa4, 0x3e, 0x0a, 0xf7, 0xff, 0xff, 0x04, 0x00, 0x00, 0x00,
  0x80, 0x00, 0x00, 0x00, 0xda, 0x33, 0x2f, 0x3d, 0x74, 0xb7, 0x13, 0x3d,
  0x7c, 0x29, 0x82, 0x3d, 0x3d, 0x11, 0xa8, 0xbb, 0x1c, 0xe6, 0xee, 0x3a,
  0x1d, 0xb9, 0xc5, 0xbb, 0xa6, 0x7d, 0x73, 0xbc, 0xec, 0x6f, 0x76, 0xbc,
  0x17, 0x8c, 0xaf, 0xbc, 0xc7, 0x96, 0x32, 0x3d, 0x50, 0x9b, 0xe6, 0x3c,
  0x5a, 0xa7, 0x4f, 0x3d, 0x75, 0x66, 0x27, 0x3d, 0x7f, 0x07, 0x57, 0x3d,
  0x54, 0x81, 0x30, 0x3d, 0xdf, 0x3e, 0x02, 0xba, 0x06, 0x7b, 0xac, 0xbc,
  0x7f, 0xf9, 0xc5, 0xbc, 0x4d, 0xbf, 0x4b, 0x3d, 0xac, 0x09, 0x04, 0xbd,
  0x51, 0x23, 0x78, 0x3d, 0xfb, 0x1d, 0x22, 0x3d, 0xf6, 0x3b, 0xab, 0x3c,
  0x3e, 0xe8, 0x2c, 0xbd, 0xf1, 0x47, 0x34, 0xbd, 0x65, 0x1e, 0x91, 0x3c,
  0xa0, 0x7b, 0x15, 0xba, 0x1e, 0x94, 0x4d, 0x3c, 0x04, 0x6a, 0xf8, 0xbc,
  0x90, 0x8c, 0x3b, 0x3d, 0xd5, 0x4d, 0x0e, 0x3d, 0x01, 0x1d, 0x3e, 0x3c,
  0x96, 0xf7, 0xff, 0xff, 0x04, 0x00, 0x00, 0x00, 0x40, 0x00, 0x00, 0x00,
  0x0e, 0x53, 0x84, 0x3d, 0xfd, 0x98, 0x4e, 0x3b, 0x0a, 0x00, 0x99, 0xbc,
  0xd1, 0xcd, 0x80, 0x3c, 0xb6, 0x5d, 0xf8, 0xbc, 0xfa, 0xb2, 0x5e, 0x3d,
  0x6f, 0xa9, 0x03, 0x3d, 0xb2, 0x42, 0x52, 0x3d, 0x6a, 0x47, 0x4d, 0x3c,
  0xd4, 0x45, 0x84, 0x3d, 0x84, 0xf3, 0xa4, 0x3b, 0x95, 0xe9, 0xbf, 0x3c,
  0x69, 0x25, 0x3b, 0x3d, 0x4c, 0x08, 0x02, 0xbd, 0x64, 0xc7, 0xbb, 0x3c,
  0x0e, 0x11, 0x68, 0x3d, 0xe2, 0xf7, 0xff, 0xff, 0x04, 0x00, 0x00, 0x00,
  0x04, 0x00, 0x00, 0x00, 0xea, 0x15, 0xf0, 0x3c, 0xf2, 0xf7, 0xff, 0xff,
  0x04, 0x00, 0x00, 0x00, 0x00, 0x08, 0x00, 0x00, 0x0c, 0xa5, 0xfa, 0x3d,
  0x98, 0x6f, 0xa3, 0xbe, 0x0c, 0x68, 0x91, 0xbe, 0x8d, 0xdc, 0x89, 0x3e,
  0xfe, 0x75, 0x76, 0x3e, 0x9d, 0x66, 0x08, 0xbd, 0x60, 0xbb, 0xa8, 0x3d,
  0x1a, 0x17, 0x96, 0xbe, 0x39, 0x12, 0xa9, 0x3e, 0x62, 0xe8, 0x95, 0x3e,
  0xdb, 0x74, 0x9b, 0x3e, 0xc9, 0x09, 0x83, 0xbe, 0xe2, 0x56, 0x98, 0xbe,
  0xfd, 0x3a, 0xb3, 0x3e, 0x6a, 0x0d, 0x1e, 0x3e, 0xf6, 0x39, 0xa0, 0x3e,
  0xab, 0x1a, 0xb3, 0x3e, 0xd8, 0xfe, 0x97, 0x3e, 0x09, 0xf8, 0x85, 0xbd,
  0x93, 0x37, 0x83, 0xbd, 0xab, 0x4b, 0xc2, 0x3e, 0xad, 0xbd, 0x99, 0x3e,
  0xe8, 0x8d, 0xb1, 0x3e, 0x44, 0x50, 0xeb, 0x3d, 0xc1, 0x29, 0x8d, 0x3a,
  0x45, 0xa1, 0x73, 0xbe, 0x7c, 0x9b, 0x15, 0xbb, 0x12, 0xe8, 0xc2, 0xbc,
  0xb9, 0x11, 0xa6, 0x3b, 0x5d, 0xa3, 0x27, 0x3e, 0x2c, 0x07, 0xbd, 0xbe,
  0x74, 0x09, 0x80, 0x3e, 0x2a, 0x30, 0xcb, 0x3d, 0xf7, 0x86, 0xa5, 0x3e,
  0xbb, 0xa7, 0xaa, 0x3e, 0xa0, 0x41, 0x5f, 0xbe, 0x2a, 0xdf, 0x87, 0x3e,
  0xf5, 0x2b, 0x9e, 0x3e, 0x99, 0xe3, 0x13, 0x3d, 0xaa, 0xa9, 0x9f, 0x3e,
  0x62, 0x86, 0xbc, 0xbd, 0xbc, 0x3b, 0xe1, 0x3d, 0xe0, 0x1c, 0x00, 0xbe,
  0xb8, 0xbf, 0xd3, 0x3c, 0x3c, 0x1b, 0x98, 0xbe, 0x6f, 0xa5, 0xbc, 0xbe,
  0x49, 0xe3, 0x44, 0xbe, 0x37, 0x1d, 0x54, 0x3e, 0x03, 0xa7, 0x64, 0xbe,
  0xfe, 0x72, 0xa5, 0x3e, 0xfa, 0x60, 0x0a, 0x3d, 0x1f, 0x4b, 0x5b, 0x3e,
  0xb2, 0x77, 0x88, 0xbc, 0xba, 0x39, 0x74, 0xbe, 0x6f, 0xa0, 0xc3, 0xbd,
  0xb6, 0xed, 0x87, 0x3d, 0x0e, 0x91, 0x3c, 0x3e, 0x92, 0x89, 0xbe, 0xbd,
  0x89, 0x8f, 0x6d, 0xbe, 0x94, 0x33, 0xb8, 0xbe, 0xb7, 0x77, 0x19, 0x3e,
  0xda, 0xb8, 0xa6, 0x3c, 0x28, 0x3f, 0x2e, 0xbe, 0xef, 0x6b, 0x19, 0x3b,
  0xb7, 0xd5, 0xe7, 0x3c, 0x91, 0x92, 0x06, 0xbe, 0xcd, 0x8b, 0x18, 0x3d,
  0xeb, 0x23, 0x9b, 0xbe, 0xf5, 0xa9, 0x5d, 0x3e, 0x5c, 0x47, 0xbd, 0x3c,
  0xed, 0x46, 0xef, 0x3d, 0x0c, 0x0d, 0x66, 0xbc, 0x6f, 0x90, 0x9d, 0x3e,
  0x9b, 0x6b, 0x88, 0x3e, 0x8c, 0xaf, 0xb0, 0x3d, 0xd7, 0x47, 0x41, 0x3e,
  0x14, 0x3e, 0x43, 0x3d, 0x0b, 0x79, 0x9a, 0xbe, 0x15, 0xce, 0xb3, 0x3e,
  0x3e, 0x5f, 0x84, 0x3d, 0x84, 0x51, 0x65, 0xbd, 0x6e, 0xfb, 0x78, 0x3e,
  0xd6, 0x79, 0xb8, 0x3e, 0x26, 0xb3, 0x8e, 0x3e, 0xa9, 0xd0, 0x68, 0xbd,
  0x96, 0xff, 0x47, 0xbe, 0x69, 0x76, 0x8c, 0xbe, 0x79, 0x92, 0x3e, 0xbe,
  0x8f, 0xe1, 0x78, 0xbe, 0xb8, 0x92, 0x21, 0x3c, 0x6b, 0x82, 0xf0, 0xbd,
  0x44, 0xf7, 0xd4, 0xbd, 0xe9, 0x42, 0x5f, 0x3e, 0x8a, 0x81, 0x8e, 0xbe,
  0x36, 0x30, 0x00, 0x3e, 0xc9, 0xab, 0x03, 0xbe, 0xba, 0x5c, 0x8d, 0x3e,
  0x89, 0xc3, 0x88, 0x3e, 0x8e, 0xc7, 0x93, 0xbc, 0xff, 0x05, 0xd2, 0xbd,
  0xbf, 0x42, 0x5f, 0x3d, 0x3d, 0xea, 0x9b, 0x3e, 0x19, 0x18, 0xae, 0x3e,
  0x79, 0xf8, 0x2e, 0xbe, 0x35, 0x3f, 0xc1, 0x3e, 0xdd, 0x7b, 0x2a, 0xbd,
  0x95, 0x2a, 0x9c, 0xbe, 0xb6, 0xf5, 0x5b, 0x3e, 0x57, 0xde, 0x82, 0xbe,
  0xfe, 0x8a, 0xa5, 0x3e, 0xc3, 0x91, 0x09, 0x3e, 0xc2, 0xc7, 0x93, 0xbe,
  0x99, 0x53, 0x5b, 0xbe, 0x99, 0x21, 0x88, 0xba, 0x86, 0x1e, 0xa8, 0xbe,
  0x18, 0x58, 0x4d, 0x3e, 0x38, 0x5a, 0xac, 0x3d, 0x5f, 0x3c, 0x2e, 0xbe,
  0x9c, 0x33, 0x7f, 0x3e, 0xac, 0xb0, 0xf9, 0xbd, 0xa6, 0x6f, 0x90, 0xbe,
  0x76, 0xea, 0xaa, 0xbd, 0x30, 0x87, 0xf4, 0xbd, 0x9a, 0xa3, 0x85, 0x3d,
  0x26, 0x39, 0x40, 0xba, 0x6b, 0x39, 0xce, 0xba, 0xd1, 0x2a, 0x07, 0xbe,
  0x83, 0x43, 0xbb, 0xbb, 0xb8, 0x75, 0x59, 0x3e, 0x91, 0x93, 0x5a, 0xbe,
  0xde, 0xe5, 0x7d, 0xbe, 0xaf, 0x9c, 0x46, 0x3e, 0xae, 0x83, 0x1b, 0xbe,
  0xf2, 0x4b, 0xb6, 0xbe, 0x74, 0x45, 0x12, 0xbd, 0xb9, 0xa2, 0x9a, 0x3e,
  0xf7, 0x43, 0x88, 0xbd, 0xbf, 0x49, 0x53, 0xbe, 0x48, 0x19, 0x3d, 0xbe,
  0xd2, 0x2a, 0x85, 0xbe, 0x4b, 0x67, 0x13, 0x3e, 0x96, 0x0c, 0x88, 0xbd,
  0xf7, 0xe4, 0xed, 0xbd, 0x3e, 0xb0, 0xa9, 0x3e, 0xad, 0xd3, 0x29, 0x3e,
  0x97, 0x9d, 0xa6, 0x3e, 0x4b, 0x1d, 0x60, 0x3e, 0xa1, 0x81, 0xac, 0xbd,
  0x5c, 0x05, 0x35, 0xbd, 0x9e, 0xca, 0xae, 0x3c, 0x08, 0x82, 0x94, 0xbe,
  0x71, 0xdd, 0x87, 0x3e, 0x45, 0x65, 0x37, 0x3e, 0xd8, 0xb4, 0x48, 0x3e,
  0x4e, 0x49, 0x12, 0x3e, 0xdd, 0x5e, 0x94, 0x3e, 0x3e, 0xf3, 0xd5, 0xbc,
  0x4b, 0xf1, 0x6e, 0x3e, 0x3d, 0x2c, 0x10, 0x3e, 0xa9, 0xb8, 0x19, 0xbe,
  0xdf, 0x28, 0x91, 0x3e, 0xaf, 0x27, 0x72, 0x3e, 0x05, 0x47, 0x30, 0x3e,
  0x7b, 0x34, 0x80, 0x3d, 0xc5, 0x14, 0xa5, 0xbe, 0xa9, 0x32, 0x84, 0xbe,
  0x4a, 0x40, 0x40, 0xbe, 0x73, 0x68, 0xc8, 0x3c, 0x09, 0xd3, 0xe7, 0xbd,
  0xda, 0xdc, 0x6d, 0xbe, 0xdf, 0x87, 0x9c, 0xbe, 0x0b, 0xff, 0x13, 0x3e,
  0xb4, 0xab, 0x27, 0x3d, 0x26, 0x6b, 0xc8, 0xbe, 0x41, 0xfa, 0xe3, 0x3c,
  0xfc, 0x2d, 0xa0, 0x3e, 0x43, 0xbd, 0x3f, 0x3e, 0x01, 0x5a, 0x26, 0xbd,
  0x10, 0xcb, 0xa5, 0x3e, 0x9e, 0xdd, 0xd7, 0x3d, 0xa0, 0xe0, 0xa7, 0xbd,
  0xa5, 0x4f, 0x13, 0x3e, 0x15, 0x55, 0xb6, 0xbc, 0x6a, 0x65, 0x9d, 0xbd,
  0x0b, 0x9c, 0xc9, 0x3c, 0x4c, 0x3d, 0x75, 0x3e, 0x01, 0x20, 0xaf, 0x3d,
  0xcd, 0x6f, 0x10, 0xbd, 0x59, 0x07, 0x36, 0xbe, 0x35, 0x52, 0xd0, 0x3c,
  0x2d, 0xb1, 0x78, 0xbe, 0x4e, 0x54, 0xcc, 0x3d, 0xc6, 0x10, 0x6e, 0xbe,
  0xbb, 0xa2, 0xa3, 0x3e, 0xfe, 0x75, 0x20, 0xbc, 0xb0, 0xfb, 0x85, 0xbd,
  0xbf, 0x5d, 0x99, 0x3e, 0x3f, 0x6a, 0xb6, 0xbe, 0x62, 0x1e, 0x78, 0xbe,
  0xa9, 0xcd, 0xa6, 0x3e, 0xd0, 0xd8, 0x5c, 0xbe, 0xfe, 0xca, 0xac, 0x3c,
  0xfc, 0x9e, 0xad, 0x3e, 0xfa, 0x6d, 0x21, 0x3d, 0x93, 0x48, 0x40, 0xbe,
  0x79, 0xc3, 0xc6, 0x3e, 0x6c, 0xd4, 0x85, 0xbe, 0x05, 0x4b, 0x00, 0x3d,
  0x1a, 0x59, 0x94, 0xbd, 0x79, 0xa9, 0xeb, 0x3d, 0x62, 0x75, 0xa0, 0xbe,
  0x7d, 0x5a, 0x89, 0x3e, 0x27, 0xaa, 0x01, 0x3e, 0x8c, 0x19, 0x80, 0xbd,
  0x51, 0xd2, 0x83, 0xbe, 0xcb, 0xfd, 0xb9, 0xbe, 0xb0, 0xc2, 0x01, 0x3d,
  0x2b, 0x86, 0x03, 0x3e, 0xcc, 0x93, 0x7f, 0x3e, 0xf9, 0x8f, 0x56, 0x3e,
  0x0b, 0x17, 0x4b, 0xbe, 0xe4, 0xa8, 0x8e, 0x3e, 0x66, 0x81, 0x90, 0xbd,
  0xc4, 0xd4, 0xb8, 0x3e, 0x29, 0x0b, 0x4c, 0xbe, 0x7e, 0xc6, 0x7a, 0xbe,
  0xb3, 0x34, 0xc4, 0x3c, 0x12, 0xf1, 0xfe, 0x3d, 0x01, 0xa9, 0x8e, 0x3d,
  0x06, 0x5c, 0x44, 0xbe, 0x46, 0x74, 0xc8, 0x3e, 0x54, 0xc7, 0x96, 0xbd,
  0x37, 0xa3, 0xc9, 0x3e, 0x70, 0x38, 0xa6, 0x3d, 0x19, 0xdf, 0xc5, 0x3d,
  0x9f, 0xee, 0x5f, 0xbe, 0x88, 0x48, 0x5c, 0x3d, 0x2f, 0xd6, 0x93, 0x3e,
  0xdd, 0xac, 0x96, 0xbe, 0xb4, 0x35, 0x19, 0x3e, 0x1e, 0xc7, 0xab, 0x3c,
  0x3f, 0x1e, 0x6a, 0xbe, 0x1b, 0xb7, 0x2a, 0x3e, 0x55, 0xee, 0x9a, 0xbe,
  0x81, 0xaf, 0x8d, 0x3e, 0x52, 0x84, 0x45, 0x3e, 0xce, 0x64, 0x7f, 0xbe,
  0xab, 0x57, 0x1c, 0x3e, 0x29, 0x7e, 0x1d, 0xbe, 0x0f, 0x11, 0x59, 0xbd,
  0x9e, 0xc2, 0x3b, 0x3e, 0x4b, 0xa5, 0x8c, 0x3e, 0xef, 0x16, 0xd2, 0x3d,
  0x20, 0xfd, 0x15, 0xbb, 0x09, 0x6e, 0x9c, 0xbe, 0xf3, 0xc3, 0x25, 0x3d,
  0x74, 0xc4, 0x59, 0x3e, 0x9d, 0x40, 0x38, 0x3e, 0x99, 0x49, 0x50, 0x3d,
  0x13, 0x4e, 0x9f, 0x3e, 0xd7, 0x24, 0x67, 0xbd, 0x0c, 0xb3, 0x89, 0xbe,
  0x4b, 0x4f, 0x98, 0xbe, 0xe4, 0x50, 0x1b, 0x3d, 0x1c, 0xbe, 0x4a, 0x3e,
  0x87, 0x70, 0x11, 0x3e, 0x69, 0x1d, 0xa6, 0x3d, 0xaa, 0x5a, 0x8e, 0xbd,
  0x83, 0x72, 0x9b, 0x3d, 0xfc, 0xf7, 0x49, 0x3e, 0xc3, 0xbe, 0xaf, 0xbe,
  0x93, 0x2e, 0x8d, 0x3e, 0x4c, 0x58, 0x09, 0xbd, 0x04, 0x3f, 0x6d, 0x3e,
  0x53, 0xd8, 0x10, 0xbd, 0xc8, 0x3f, 0x91, 0x3e, 0x35, 0x44, 0xc5, 0x3e,
  0xf8, 0x24, 0x49, 0x3e, 0xa2, 0xe0, 0x91, 0x3e, 0x7c, 0x87, 0xac, 0xbd,
  0x91, 0x5f, 0x7b, 0xbe, 0xea, 0x9c, 0xd1, 0x3d, 0xe5, 0x2a, 0x73, 0x3e,
  0xd8, 0x0e, 0xcb, 0x3e, 0x1b, 0xe2, 0x62, 0xbe, 0xe1, 0x73, 0x85, 0x3e,
  0x4c, 0x1e, 0xd2, 0xbe, 0x34, 0xc1, 0x85, 0xbd, 0x34, 0xd9, 0x23, 0xbd,
  0xa2, 0xaf, 0x38, 0xbd, 0x7b, 0xa0, 0x36, 0xbe, 0x3a, 0xe7, 0x99, 0xbe,
  0xa2, 0x99, 0x26, 0xbe, 0x1c, 0x7c, 0x99, 0x3e, 0x63, 0xd2, 0x7b, 0xbe,
  0x01, 0x10, 0xa0, 0xbc, 0x48, 0xfc, 0xda, 0x3d, 0xfc, 0xb4, 0x92, 0xbe,
  0x9a, 0x13, 0x82, 0xbe, 0x3c, 0xd4, 0x41, 0xbd, 0x6d, 0x83, 0x44, 0x3e,
  0x58, 0xdf, 0x00, 0x3d, 0x00, 0x0b, 0xb1, 0x3a, 0x6a, 0x5c, 0x90, 0xbe,
  0x2c, 0x84, 0x30, 0x3b, 0x20, 0x03, 0x28, 0x3c, 0x46, 0x3b, 0x21, 0xbd,
  0xf7, 0xf5, 0x39, 0xbe, 0x81, 0xbb, 0x0b, 0x3d, 0xe5, 0x20, 0xa1, 0x3e,
  0xb1, 0x76, 0x8e, 0x3e, 0xae, 0x92, 0x4f, 0xbe, 0xf1, 0x1b, 0xcc, 0x3b,
  0x6a, 0xb5, 0x97, 0xbe, 0xb4, 0xd0, 0x41, 0xbd, 0xab, 0xc3, 0x07, 0xbe,
  0x9c, 0x36, 0xae, 0xbd, 0x8a, 0x30, 0x88, 0xbe, 0x83, 0x1e, 0xc3, 0xbc,
  0xbf, 0xbc, 0x85, 0xbd, 0x60, 0x27, 0xba, 0x3e, 0xd5, 0xcb, 0xfc, 0x3d,
  0xff, 0x07, 0x70, 0xbd, 0xd5, 0x20, 0x43, 0x3e, 0xf3, 0x22, 0x8b, 0x3d,
  0x91, 0x1e, 0x63, 0xbe, 0x4e, 0xa5, 0x63, 0xbe, 0xbf, 0xbe, 0x40, 0x3e,
  0x18, 0xc4, 0x9d, 0x3e, 0x25, 0x48, 0xff, 0xbd, 0x02, 0xbc, 0x0c, 0x3e,
  0x74, 0x4b, 0x0f, 0xbe, 0x1c, 0xa4, 0x75, 0x3e, 0xaf, 0x02, 0x28, 0x3d,
  0xbd, 0x1c, 0x5f, 0x3e, 0xe2, 0xc2, 0x33, 0x3e, 0xd4, 0x0a, 0x69, 0x3e,
  0x07, 0x3d, 0x47, 0xbd, 0x46, 0x49, 0x9b, 0x3e, 0xb6, 0x0c, 0x29, 0x3d,
  0x43, 0x64, 0xb0, 0xbd, 0xc6, 0x67, 0xdb, 0xbd, 0x1e, 0x83, 0x87, 0x3e,
  0xef, 0x55, 0x1a, 0xbe, 0x53, 0x1a, 0x6c, 0x3e, 0x76, 0xd7, 0x86, 0x3e,
  0x44, 0x09, 0xbd, 0xbe, 0x94, 0xa2, 0xa5, 0xbe, 0x12, 0x56, 0x20, 0xbe,
  0x09, 0x01, 0x94, 0x3e, 0x44, 0x0f, 0x33, 0xbc, 0x2b, 0xa4, 0xa2, 0xbe,
  0x0b, 0xca, 0x4f, 0x3e, 0xab, 0x66, 0x9f, 0x3d, 0x0f, 0x7b, 0xcf, 0x3e,
  0x51, 0xdd, 0x2f, 0xbd, 0xfc, 0x61, 0x75, 0x3e, 0xe0, 0x68, 0x9a, 0xbe,
  0x51, 0xbb, 0x3f, 0x3e, 0xd8, 0xa8, 0x7a, 0xbd, 0x05, 0x3f, 0xb5, 0x3d,
  0x6f, 0x29, 0x8f, 0xbe, 0x0e, 0x04, 0x86, 0xbe, 0xdc, 0xdf, 0xfe, 0xbc,
  0x02, 0x28, 0x3c, 0xbd, 0x16, 0x7d, 0x24, 0xbe, 0x11, 0x5e, 0xbb, 0x3e,
  0xc0, 0xf1, 0x63, 0x3d, 0xef, 0xe4, 0x6c, 0x3d, 0xf2, 0x05, 0xd6, 0xbd,
  0x33, 0xf6, 0xb4, 0x3e, 0xa8, 0xbb, 0xed, 0xbd, 0x00, 0xb7, 0xa0, 0xbe,
  0x56, 0xb7, 0x67, 0x3e, 0x15, 0x62, 0xca, 0xbc, 0xe6, 0x58, 0x14, 0xbe,
  0x4a, 0x10, 0x11, 0xbd, 0x29, 0x3e, 0x51, 0x3e, 0x57, 0xfb, 0x65, 0xbe,
  0x49, 0x3f, 0xfb, 0xbc, 0xbc, 0xbf, 0x4a, 0x3e, 0x17, 0x17, 0x0d, 0x3e,
  0x6a, 0xe6, 0xdf, 0x3d, 0x82, 0x20, 0x76, 0xbe, 0x73, 0xe4, 0x34, 0xbe,
  0x79, 0x6b, 0x6f, 0x3e, 0xae, 0x2a, 0xd1, 0x3e, 0x12, 0xde, 0x21, 0x3e,
  0x91, 0x05, 0x6b, 0xbe, 0x72, 0xb1, 0x5e, 0x3e, 0x15, 0xbd, 0x2b, 0xbd,
  0xc0, 0x01, 0xc9, 0xbd, 0x2c, 0xb3, 0x82, 0x3e, 0xd6, 0x0f, 0x20, 0xbe,
  0x65, 0x8d, 0xa3, 0xbe, 0x95, 0x66, 0x83, 0xbd, 0xc9, 0xed, 0xe3, 0xbd,
  0xb5, 0x32, 0x6e, 0x3e, 0xcf, 0x5f, 0x8e, 0x3e, 0xed, 0xb6, 0xf3, 0x3d,
  0x28, 0x73, 0x2a, 0xbc, 0x21, 0x38, 0xdc, 0xbd, 0x87, 0x8a, 0xa3, 0x3e,
  0x31, 0x64, 0x47, 0x3e, 0x5b, 0x6e, 0x30, 0xbe, 0x56, 0xc9, 0x17, 0xbc,
  0x1c, 0x2f, 0xe3, 0x3d, 0x42, 0xc3, 0xee, 0x3c, 0x34, 0xb0, 0xc3, 0xbe,
  0x59, 0x5b, 0xa0, 0x3d, 0x54, 0x6c, 0x3b, 0xbe, 0x95, 0x29, 0xb3, 0xbe,
  0xb9, 0x92, 0x42, 0x3e, 0xb4, 0x00, 0x8b, 0x3e, 0x3e, 0xbb, 0x7e, 0x3e,
  0xe1, 0xb9, 0x97, 0x3e, 0x30, 0x39, 0x98, 0xbe, 0x33, 0xe6, 0x61, 0x3e,
  0x06, 0x29, 0x8b, 0x3e, 0x2d, 0x3b, 0xa2, 0x3e, 0xc2, 0x8e, 0x78, 0xbe,
  0x35, 0x71, 0x3a, 0x3e, 0x66, 0x90, 0x31, 0xbd, 0xb7, 0x7e, 0x3d, 0xbe,
  0xe1, 0x68, 0x96, 0x3e, 0xd6, 0x01, 0xbf, 0xbe, 0xd5, 0x4e, 0x70, 0x3d,
  0xbd, 0xb7, 0xe1, 0xbd, 0x1e, 0xc5, 0x8c, 0x3d, 0xcd, 0x36, 0x0d, 0xbe,
  0x84, 0xa8, 0x0b, 0xbe, 0xbc, 0x16, 0x45, 0x3e, 0x62, 0xec, 0xf9, 0xbd,
  0xd8, 0x55, 0x1b, 0x3d, 0x95, 0xf7, 0xa6, 0xbe, 0x10, 0x14, 0x0f, 0xbc,
  0xee, 0xa1, 0x70, 0x3e, 0x59, 0x3a, 0x83, 0xbe, 0x28, 0xe6, 0xda, 0x3d,
  0x28, 0x26, 0xa7, 0x3d, 0xbb, 0xc0, 0x48, 0x3e, 0x0c, 0xda, 0xd0, 0x3d,
  0x3b, 0xf1, 0x93, 0xbe, 0x1c, 0x44, 0xb7, 0x3c, 0xbf, 0x97, 0x2d, 0xbd,
  0x53, 0xb8, 0x80, 0xbe, 0xa6, 0xca, 0xa0, 0xbe, 0x9b, 0xd0, 0xa2, 0xbe,
  0x69, 0xa2, 0x88, 0xbe, 0xab, 0x9c, 0x4a, 0xbe, 0xf0, 0x53, 0x87, 0xbe,
  0xdf, 0x47, 0x11, 0xbd, 0xd7, 0xc3, 0x1f, 0x3e, 0xdf, 0xad, 0x25, 0x3e,
  0x35, 0x4a, 0x52, 0xbe, 0xda, 0xd4, 0xb0, 0x3e, 0x2c, 0x79, 0x1d, 0x3e,
  0xd6, 0x01, 0x99, 0xbc, 0x4a, 0x6a, 0x9e, 0xbe, 0x54, 0x36, 0x57, 0x3e,
  0xf2, 0x82, 0x93, 0xbe, 0x11, 0x61, 0x29, 0xbd, 0x06, 0xb8, 0x0a, 0x3e,
  0x50, 0xd9, 0x0b, 0x3e, 0x7d, 0x92, 0x84, 0xbe, 0x2b, 0xa7, 0x0e, 0xbd,
  0x4a, 0x44, 0x89, 0x3e, 0xb4, 0x45, 0x6a, 0xbe, 0x0d, 0x51, 0x81, 0xbe,
  0x33, 0xd3, 0xe3, 0x3d, 0xbf, 0x0f, 0x7e, 0x3d, 0x0b, 0xee, 0xb2, 0xbe,
  0x38, 0xf4, 0x0f, 0x3e, 0x76, 0xe6, 0x69, 0xbe, 0xcf, 0x8f, 0x69, 0xbe,
  0x0c, 0xd2, 0x04, 0x3e, 0x49, 0x61, 0x92, 0xbe, 0x0f, 0xe2, 0x17, 0xbe,
  0x39, 0x7d, 0xb3, 0xbe, 0xb2, 0x11, 0x0c, 0x3e, 0xb2, 0xd5, 0xa9, 0x3c,
  0xd4, 0x09, 0x27, 0xbe, 0xfa, 0x9b, 0x89, 0xbe, 0x88, 0x0e, 0xaf, 0xbe,
  0xa4, 0xad, 0x8b, 0x3d, 0x43, 0x25, 0x86, 0xbc, 0x5d, 0x4d, 0x4b, 0xbc,
  0x0a, 0x40, 0x83, 0xbe, 0xe1, 0x93, 0xf2, 0xbd, 0x26, 0x88, 0x6c, 0xbe,
  0xa4, 0x5f, 0x80, 0x3e, 0x7d, 0xca, 0xb1, 0x3e, 0x0d, 0xa4, 0xf2, 0xbc,
  0x26, 0x0c, 0x6a, 0xbe, 0xbe, 0x2e, 0x59, 0x3d, 0x2d, 0x32, 0x01, 0xbe,
  0x70, 0xaf, 0xc7, 0x3e, 0x1b, 0x27, 0x5f, 0x3e, 0xab, 0x4a, 0x9a, 0xbd,
  0x14, 0x53, 0xc2, 0x3d, 0xc6, 0x27, 0xa4, 0x3e, 0xb8, 0xa4, 0x7d, 0x3a,
  0xb3, 0xa1, 0x11, 0x3c, 0x11, 0x51, 0xb9, 0x3c, 0xf2, 0xb0, 0xb3, 0xbd,
  0x2b, 0x0b, 0x8a, 0xbe, 0x74, 0xee, 0x36, 0x3e, 0x53, 0x38, 0xe1, 0x3d,
  0x12, 0x59, 0x46, 0x3e, 0x42, 0x75, 0x0c, 0xbd, 0xae, 0x48, 0x96, 0xbd,
  0x09, 0x26, 0xb6, 0x3e, 0x00, 0x00, 0x06, 0x00, 0x08, 0x00, 0x04, 0x00,
  0x06, 0x00, 0x00, 0x00, 0x04, 0x00, 0x00, 0x00, 0x40, 0x00, 0x00, 0x00,
  0x57, 0x28, 0x8a, 0x3d, 0x18, 0x80, 0x04, 0xbd, 0xbb, 0x86, 0x0a, 0xbe,
  0x13, 0xc1, 0xcf, 0x3e, 0x19, 0xda, 0xea, 0xbe, 0x94, 0x7f, 0x02, 0xbf,
  0x75, 0xd1, 0xb2, 0x3e, 0x25, 0xdf, 0x20, 0x3e, 0x6f, 0x6b, 0x87, 0x3e,
  0xb6, 0xae, 0x45, 0xbe, 0x90, 0x2a, 0x1c, 0xbf, 0x17, 0x84, 0xbc, 0xbe,
  0x80, 0x02, 0x80, 0xbe, 0x33, 0xbe, 0x0b, 0xbf, 0x9a, 0x12, 0xd8, 0xbd,
  0x37, 0xf0, 0xa4, 0x3e, 0x44, 0xfb, 0xff, 0xff, 0x48, 0xfb, 0xff, 0xff,
  0x0f, 0x00, 0x00, 0x00, 0x4d, 0x4c, 0x49, 0x52, 0x20, 0x43, 0x6f, 0x6e,
  0x76, 0x65, 0x72, 0x74, 0x65, 0x64, 0x2e, 0x00, 0x01, 0x00, 0x00, 0x00,
  0x14, 0x00, 0x00, 0x00, 0x00, 0x00, 0x0e, 0x00, 0x18, 0x00, 0x14, 0x00,
  0x10, 0x00, 0x0c, 0x00, 0x08, 0x00, 0x04, 0x00, 0x0e, 0x00, 0x00, 0x00,
  0x14, 0x00, 0x00, 0x00, 0x1c, 0x00, 0x00, 0x00, 0xd8, 0x00, 0x00, 0x00,
  0xdc, 0x00, 0x00, 0x00, 0xe0, 0x00, 0x00, 0x00, 0x04, 0x00, 0x00, 0x00,
  0x6d, 0x61, 0x69, 0x6e, 0x00, 0x00, 0x00, 0x00, 0x03, 0x00, 0x00, 0x00,
  0x80, 0x00, 0x00, 0x00, 0x38, 0x00, 0x00, 0x00, 0x04, 0x00, 0x00, 0x00,
  0x9a, 0xff, 0xff, 0xff, 0x10, 0x00, 0x00, 0x00, 0x00, 0x00, 0x00, 0x08,
  0x0c, 0x00, 0x00, 0x00, 0x10, 0x00, 0x00, 0x00, 0xc0, 0xfb, 0xff, 0xff,
  0x01, 0x00, 0x00, 0x00, 0x09, 0x00, 0x00, 0x00, 0x03, 0x00, 0x00, 0x00,
  0x08, 0x00, 0x00, 0x00, 0x01, 0x00, 0x00, 0x00, 0x03, 0x00, 0x00, 0x00,
  0xca, 0xff, 0xff, 0xff, 0x10, 0x00, 0x00, 0x00, 0x00, 0x00, 0x00, 0x08,
  0x10, 0x00, 0x00, 0x00, 0x14, 0x00, 0x00, 0x00, 0xba, 0xff, 0xff, 0xff,
  0x00, 0x00, 0x00, 0x01, 0x01, 0x00, 0x00, 0x00, 0x08, 0x00, 0x00, 0x00,
  0x03, 0x00, 0x00, 0x00, 0x07, 0x00, 0x00, 0x00, 0x02, 0x00, 0x00, 0x00,
  0x04, 0x00, 0x00, 0x00, 0x00, 0x00, 0x0e, 0x00, 0x16, 0x00, 0x00, 0x00,
  0x10, 0x00, 0x0c, 0x00, 0x0b, 0x00, 0x04, 0x00, 0x0e, 0x00, 0x00, 0x00,
  0x18, 0x00, 0x00, 0x00, 0x00, 0x00, 0x00, 0x08, 0x18, 0x00, 0x00, 0x00,
  0x1c, 0x00, 0x00, 0x00, 0x00, 0x00, 0x06, 0x00, 0x08, 0x00, 0x07, 0x00,
  0x06, 0x00, 0x00, 0x00, 0x00, 0x00, 0x00, 0x01, 0x01, 0x00, 0x00, 0x00,
  0x07, 0x00, 0x00, 0x00, 0x03, 0x00, 0x00, 0x00, 0x00, 0x00, 0x00, 0x00,
  0x06, 0x00, 0x00, 0x00, 0x05, 0x00, 0x00, 0x00, 0x01, 0x00, 0x00, 0x00,
  0x09, 0x00, 0x00, 0x00, 0x01, 0x00, 0x00, 0x00, 0x00, 0x00, 0x00, 0x00,
  0x0a, 0x00, 0x00, 0x00, 0x68, 0x03, 0x00, 0x00, 0x10, 0x03, 0x00, 0x00,
  0xb8, 0x02, 0x00, 0x00, 0x7c, 0x02, 0x00, 0x00, 0x40, 0x02, 0x00, 0x00,
  0xe8, 0x01, 0x00, 0x00, 0x98, 0x01, 0x00, 0x00, 0xfc, 0x00, 0x00, 0x00,
  0x60, 0x00, 0x00, 0x00, 0x04, 0x00, 0x00, 0x00, 0xd6, 0xfc, 0xff, 0xff,
  0x00, 0x00, 0x00, 0x01, 0x14, 0x00, 0x00, 0x00, 0x1c, 0x00, 0x00, 0x00,
  0x1c, 0x00, 0x00, 0x00, 0x0a, 0x00, 0x00, 0x00, 0x34, 0x00, 0x00, 0x00,
  0x02, 0x00, 0x00, 0x00, 0xff, 0xff, 0xff, 0xff, 0x01, 0x00, 0x00, 0x00,
  0xc0, 0xfc, 0xff, 0xff, 0x1b, 0x00, 0x00, 0x00, 0x53, 0x74, 0x61, 0x74,
  0x65, 0x66, 0x75, 0x6c, 0x50, 0x61, 0x72, 0x74, 0x69, 0x74, 0x69, 0x6f,
  0x6e, 0x65, 0x64, 0x43, 0x61, 0x6c, 0x6c, 0x5f, 0x31, 0x3a, 0x30, 0x00,
  0x02, 0x00, 0x00, 0x00, 0x01, 0x00, 0x00, 0x00, 0x01, 0x00, 0x00, 0x00,
  0x2e, 0xfd, 0xff, 0xff, 0x00, 0x00, 0x00, 0x01, 0x14, 0x00, 0x00, 0x00,
  0x1c, 0x00, 0x00, 0x00, 0x1c, 0x00, 0x00, 0x00, 0x09, 0x00, 0x00, 0x00,
  0x74, 0x00, 0x00, 0x00, 0x02, 0x00, 0x00, 0x00, 0xff, 0xff, 0xff, 0xff,
  0x10, 0x00, 0x00, 0x00, 0x18, 0xfd, 0xff, 0xff, 0x5a, 0x00, 0x00, 0x00,
  0x73, 0x65, 0x71, 0x75, 0x65, 0x6e, 0x74, 0x69, 0x61, 0x6c, 0x5f, 0x32,
  0x5f, 0x31, 0x2f, 0x64, 0x65, 0x6e, 0x73, 0x65, 0x5f, 0x37, 0x5f, 0x31,
  0x2f, 0x4d, 0x61, 0x74, 0x4d, 0x75, 0x6c, 0x3b, 0x73, 0x65, 0x71, 0x75,
  0x65, 0x6e, 0x74, 0x69, 0x61, 0x6c, 0x5f, 0x32, 0x5f, 0x31, 0x2f, 0x64,
  0x65, 0x6e, 0x73, 0x65, 0x5f, 0x37, 0x5f, 0x31, 0x2f, 0x52, 0x65, 0x6c,
  0x75, 0x3b, 0x73, 0x65, 0x71, 0x75, 0x65, 0x6e, 0x74, 0x69, 0x61, 0x6c,
  0x5f, 0x32, 0x5f, 0x31, 0x2f, 0x64, 0x65, 0x6e, 0x73, 0x65, 0x5f, 0x37,
  0x5f, 0x31, 0x2f, 0x41, 0x64, 0x64, 0x00, 0x00, 0x02, 0x00, 0x00, 0x00,
  0x01, 0x00, 0x00, 0x00, 0x10, 0x00, 0x00, 0x00, 0xc6, 0xfd, 0xff, 0xff,
  0x00, 0x00, 0x00, 0x01, 0x14, 0x00, 0x00, 0x00, 0x1c, 0x00, 0x00, 0x00,
  0x1c, 0x00, 0x00, 0x00, 0x08, 0x00, 0x00, 0x00, 0x74, 0x00, 0x00, 0x00,
  0x02, 0x00, 0x00, 0x00, 0xff, 0xff, 0xff, 0xff, 0x20, 0x00, 0x00, 0x00,
  0xb0, 0xfd, 0xff, 0xff, 0x5a, 0x00, 0x00, 0x00, 0x73, 0x65, 0x71, 0x75,
  0x65, 0x6e, 0x74, 0x69, 0x61, 0x6c, 0x5f, 0x32, 0x5f, 0x31, 0x2f, 0x64,
  0x65, 0x6e, 0x73, 0x65, 0x5f, 0x36, 0x5f, 0x31, 0x2f, 0x4d, 0x61, 0x74,
  0x4d, 0x75, 0x6c, 0x3b, 0x73, 0x65, 0x71, 0x75, 0x65, 0x6e, 0x74, 0x69,
  0x61, 0x6c, 0x5f, 0x32, 0x5f, 0x31, 0x2f, 0x64, 0x65, 0x6e, 0x73, 0x65,
  0x5f, 0x36, 0x5f, 0x31, 0x2f, 0x52, 0x65, 0x6c, 0x75, 0x3b, 0x73, 0x65,
  0x71, 0x75, 0x65, 0x6e, 0x74, 0x69, 0x61, 0x6c, 0x5f, 0x32, 0x5f, 0x31,
  0x2f, 0x64, 0x65, 0x6e, 0x73, 0x65, 0x5f, 0x36, 0x5f, 0x31, 0x2f, 0x41,
  0x64, 0x64, 0x00, 0x00, 0x02, 0x00, 0x00, 0x00, 0x01, 0x00, 0x00, 0x00,
  0x20, 0x00, 0x00, 0x00, 0xb2, 0xfe, 0xff, 0xff, 0x00, 0x00, 0x00, 0x01,
  0x10, 0x00, 0x00, 0x00, 0x10, 0x00, 0x00, 0x00, 0x07, 0x00, 0x00, 0x00,
  0x2c, 0x00, 0x00, 0x00, 0x38, 0xfe, 0xff, 0xff, 0x1f, 0x00, 0x00, 0x00,
  0x73, 0x65, 0x71, 0x75, 0x65, 0x6e, 0x74, 0x69, 0x61, 0x6c, 0x5f, 0x32,
  0x5f, 0x31, 0x2f, 0x64, 0x65, 0x6e, 0x73, 0x65, 0x5f, 0x36, 0x5f, 0x31,
  0x2f, 0x4d, 0x61, 0x74, 0x4d, 0x75, 0x6c, 0x00, 0x02, 0x00, 0x00, 0x00,
  0x20, 0x00, 0x00, 0x00, 0x0c, 0x00, 0x00, 0x00, 0xfe, 0xfe, 0xff, 0xff,
  0x00, 0x00, 0x00, 0x01, 0x10, 0x00, 0x00, 0x00, 0x10, 0x00, 0x00, 0x00,
  0x06, 0x00, 0x00, 0x00, 0x38, 0x00, 0x00, 0x00, 0x84, 0xfe, 0xff, 0xff,
  0x2b, 0x00, 0x00, 0x00, 0x73, 0x65, 0x71, 0x75, 0x65, 0x6e, 0x74, 0x69,
  0x61, 0x6c, 0x5f, 0x32, 0x5f, 0x31, 0x2f, 0x64, 0x65, 0x6e, 0x73, 0x65,
  0x5f, 0x36, 0x5f, 0x31, 0x2f, 0x41, 0x64, 0x64, 0x2f, 0x52, 0x65, 0x61,
  0x64, 0x56, 0x61, 0x72, 0x69, 0x61, 0x62, 0x6c, 0x65, 0x4f, 0x70, 0x00,
  0x01, 0x00, 0x00, 0x00, 0x20, 0x00, 0x00, 0x00, 0x52, 0xff, 0xff, 0xff,
  0x00, 0x00, 0x00, 0x01, 0x10, 0x00, 0x00, 0x00, 0x10, 0x00, 0x00, 0x00,
  0x05, 0x00, 0x00, 0x00, 0x1c, 0x00, 0x00, 0x00, 0xd8, 0xfe, 0xff, 0xff,
  0x0f, 0x00, 0x00, 0x00, 0x61, 0x72, 0x69, 0x74, 0x68, 0x2e, 0x63, 0x6f,
  0x6e, 0x73, 0x74, 0x61, 0x6e, 0x74, 0x33, 0x00, 0x01, 0x00, 0x00, 0x00,
  0x10, 0x00, 0x00, 0x00, 0x8a, 0xff, 0xff, 0xff, 0x00, 0x00, 0x00, 0x01,
  0x10, 0x00, 0x00, 0x00, 0x10, 0x00, 0x00, 0x00, 0x04, 0x00, 0x00, 0x00,
  0x1c, 0x00, 0x00, 0x00, 0x10, 0xff, 0xff, 0xff, 0x0f, 0x00, 0x00, 0x00,
  0x61, 0x72, 0x69, 0x74, 0x68, 0x2e, 0x63, 0x6f, 0x6e, 0x73, 0x74, 0x61,
  0x6e, 0x74, 0x32, 0x00, 0x01, 0x00, 0x00, 0x00, 0x01, 0x00, 0x00, 0x00,
  0xc2, 0xff, 0xff, 0xff, 0x00, 0x00, 0x00, 0x01, 0x10, 0x00, 0x00, 0x00,
  0x10, 0x00, 0x00, 0x00, 0x03, 0x00, 0x00, 0x00, 0x1c, 0x00, 0x00, 0x00,
  0x48, 0xff, 0xff, 0xff, 0x0f, 0x00, 0x00, 0x00, 0x61, 0x72, 0x69, 0x74,
  0x68, 0x2e, 0x63, 0x6f, 0x6e, 0x73, 0x74, 0x61, 0x6e, 0x74, 0x31, 0x00,
  0x02, 0x00, 0x00, 0x00, 0x10, 0x00, 0x00, 0x00, 0x20, 0x00, 0x00, 0x00,
  0x00, 0x00, 0x16, 0x00, 0x18, 0x00, 0x14, 0x00, 0x00, 0x00, 0x10, 0x00,
  0x0c, 0x00, 0x08, 0x00, 0x00, 0x00, 0x00, 0x00, 0x00, 0x00, 0x07, 0x00,
  0x16, 0x00, 0x00, 0x00, 0x00, 0x00, 0x00, 0x01, 0x10, 0x00, 0x00, 0x00,
  0x10, 0x00, 0x00, 0x00, 0x02, 0x00, 0x00, 0x00, 0x1c, 0x00, 0x00, 0x00,
  0x9c, 0xff, 0xff, 0xff, 0x0e, 0x00, 0x00, 0x00, 0x61, 0x72, 0x69, 0x74,
  0x68, 0x2e, 0x63, 0x6f, 0x6e, 0x73, 0x74, 0x61, 0x6e, 0x74, 0x00, 0x00,
  0x02, 0x00, 0x00, 0x00, 0x01, 0x00, 0x00, 0x00, 0x10, 0x00, 0x00, 0x00,
  0x00, 0x00, 0x16, 0x00, 0x1c, 0x00, 0x18, 0x00, 0x00, 0x00, 0x14, 0x00,
  0x10, 0x00, 0x0c, 0x00, 0x00, 0x00, 0x00, 0x00, 0x08, 0x00, 0x07, 0x00,
  0x16, 0x00, 0x00, 0x00, 0x00, 0x00, 0x00, 0x01, 0x14, 0x00, 0x00, 0x00,
  0x20, 0x00, 0x00, 0x00, 0x20, 0x00, 0x00, 0x00, 0x01, 0x00, 0x00, 0x00,
  0x3c, 0x00, 0x00, 0x00, 0x02, 0x00, 0x00, 0x00, 0xff, 0xff, 0xff, 0xff,
  0x0c, 0x00, 0x00, 0x00, 0x04, 0x00, 0x04, 0x00, 0x04, 0x00, 0x00, 0x00,
  0x1f, 0x00, 0x00, 0x00, 0x73, 0x65, 0x72, 0x76, 0x69, 0x6e, 0x67, 0x5f,
  0x64, 0x65, 0x66, 0x61, 0x75, 0x6c, 0x74, 0x5f, 0x69, 0x6e, 0x70, 0x75,
  0x74, 0x5f, 0x6c, 0x61, 0x79, 0x65, 0x72, 0x5f, 0x32, 0x3a, 0x30, 0x00,
  0x02, 0x00, 0x00, 0x00, 0x01, 0x00, 0x00, 0x00, 0x0c, 0x00, 0x00, 0x00,
  0x01, 0x00, 0x00, 0x00, 0x10, 0x00, 0x00, 0x00, 0x0c, 0x00, 0x0c, 0x00,
  0x0b, 0x00, 0x00, 0x00, 0x00, 0x00, 0x04, 0x00, 0x0c, 0x00, 0x00, 0x00,
  0x09, 0x00, 0x00, 0x00, 0x00, 0x00, 0x00, 0x09
};
unsigned int model_ph_tflite_len = 5708;
