/* Copyright 2023 The TensorFlow Authors. All Rights Reserved.

Licensed under the Apache License, Version 2.0 (the "License");
you may not use this file except in compliance with the License.
You may obtain a copy of the License at

    http://www.apache.org/licenses/LICENSE-2.0

Unless required by applicable law or agreed to in writing, software
distributed under the License is distributed on an "AS IS" BASIS,
WITHOUT WARRANTIES OR CONDITIONS OF ANY KIND, either express or implied.
See the License for the specific language governing permissions and
limitations under the License.
==============================================================================*/

// Automatically created from a TensorFlow Lite flatbuffer using the command:
// xxd -i model.tflite > model.cc

// This is a standard TensorFlow Lite model file that has been converted into a
// C data array, so it can be easily compiled into a binary for devices that
// don't have a file system, such as most Arduino boards.


// The array g_model must be aligned to 16 bytes to be compatible 
// with CMSIS (Cortex Microcontroller Software Interface Standard). 
// alignas(16) directive is used to specify that the g_model array 
// should be stored in memory at an address that is a multiple of 16.
unsigned char quantized_model_tflite[] = {
  0x20, 0x00, 0x00, 0x00, 0x54, 0x46, 0x4c, 0x33, 0x00, 0x00, 0x00, 0x00,
  0x14, 0x00, 0x20, 0x00, 0x1c, 0x00, 0x18, 0x00, 0x14, 0x00, 0x10, 0x00,
  0x0c, 0x00, 0x00, 0x00, 0x08, 0x00, 0x04, 0x00, 0x14, 0x00, 0x00, 0x00,
  0x1c, 0x00, 0x00, 0x00, 0x8c, 0x00, 0x00, 0x00, 0xe4, 0x00, 0x00, 0x00,
  0x10, 0x18, 0x00, 0x00, 0x20, 0x18, 0x00, 0x00, 0x48, 0x1f, 0x00, 0x00,
  0x03, 0x00, 0x00, 0x00, 0x01, 0x00, 0x00, 0x00, 0x04, 0x00, 0x00, 0x00,
  0xa2, 0xe7, 0xff, 0xff, 0x0c, 0x00, 0x00, 0x00, 0x1c, 0x00, 0x00, 0x00,
  0x3c, 0x00, 0x00, 0x00, 0x0f, 0x00, 0x00, 0x00, 0x73, 0x65, 0x72, 0x76,
  0x69, 0x6e, 0x67, 0x5f, 0x64, 0x65, 0x66, 0x61, 0x75, 0x6c, 0x74, 0x00,
  0x01, 0x00, 0x00, 0x00, 0x04, 0x00, 0x00, 0x00, 0x90, 0xff, 0xff, 0xff,
  0x0a, 0x00, 0x00, 0x00, 0x04, 0x00, 0x00, 0x00, 0x08, 0x00, 0x00, 0x00,
  0x6f, 0x75, 0x74, 0x70, 0x75, 0x74, 0x5f, 0x30, 0x00, 0x00, 0x00, 0x00,
  0x01, 0x00, 0x00, 0x00, 0x04, 0x00, 0x00, 0x00, 0x72, 0xf4, 0xff, 0xff,
  0x04, 0x00, 0x00, 0x00, 0x0f, 0x00, 0x00, 0x00, 0x6b, 0x65, 0x72, 0x61,
  0x73, 0x5f, 0x74, 0x65, 0x6e, 0x73, 0x6f, 0x72, 0x5f, 0x31, 0x34, 0x00,
  0x02, 0x00, 0x00, 0x00, 0x34, 0x00, 0x00, 0x00, 0x04, 0x00, 0x00, 0x00,
  0xdc, 0xff, 0xff, 0xff, 0x0d, 0x00, 0x00, 0x00, 0x04, 0x00, 0x00, 0x00,
  0x13, 0x00, 0x00, 0x00, 0x43, 0x4f, 0x4e, 0x56, 0x45, 0x52, 0x53, 0x49,
  0x4f, 0x4e, 0x5f, 0x4d, 0x45, 0x54, 0x41, 0x44, 0x41, 0x54, 0x41, 0x00,
  0x08, 0x00, 0x0c, 0x00, 0x08, 0x00, 0x04, 0x00, 0x08, 0x00, 0x00, 0x00,
  0x0c, 0x00, 0x00, 0x00, 0x04, 0x00, 0x00, 0x00, 0x13, 0x00, 0x00, 0x00,
  0x6d, 0x69, 0x6e, 0x5f, 0x72, 0x75, 0x6e, 0x74, 0x69, 0x6d, 0x65, 0x5f,
  0x76, 0x65, 0x72, 0x73, 0x69, 0x6f, 0x6e, 0x00, 0x0e, 0x00, 0x00, 0x00,
  0x28, 0x17, 0x00, 0x00, 0x20, 0x17, 0x00, 0x00, 0x10, 0x0b, 0x00, 0x00,
  0xf8, 0x09, 0x00, 0x00, 0x68, 0x09, 0x00, 0x00, 0x54, 0x09, 0x00, 0x00,
  0xc4, 0x08, 0x00, 0x00, 0xb4, 0x00, 0x00, 0x00, 0xac, 0x00, 0x00, 0x00,
  0xa4, 0x00, 0x00, 0x00, 0x9c, 0x00, 0x00, 0x00, 0x94, 0x00, 0x00, 0x00,
  0x74, 0x00, 0x00, 0x00, 0x04, 0x00, 0x00, 0x00, 0x26, 0xf5, 0xff, 0xff,
  0x04, 0x00, 0x00, 0x00, 0x60, 0x00, 0x00, 0x00, 0x0c, 0x00, 0x00, 0x00,
  0x08, 0x00, 0x0e, 0x00, 0x08, 0x00, 0x04, 0x00, 0x08, 0x00, 0x00, 0x00,
  0x10, 0x00, 0x00, 0x00, 0x28, 0x00, 0x00, 0x00, 0x00, 0x00, 0x06, 0x00,
  0x08, 0x00, 0x04, 0x00, 0x06, 0x00, 0x00, 0x00, 0x04, 0x00, 0x00, 0x00,
  0x01, 0x00, 0x00, 0x00, 0xea, 0x03, 0x00, 0x00, 0x0c, 0x00, 0x18, 0x00,
  0x14, 0x00, 0x10, 0x00, 0x0c, 0x00, 0x04, 0x00, 0x0c, 0x00, 0x00, 0x00,
  0x81, 0x93, 0x63, 0xee, 0xad, 0x9d, 0xde, 0x07, 0x02, 0x00, 0x00, 0x00,
  0x02, 0x00, 0x00, 0x00, 0x04, 0x00, 0x00, 0x00, 0x06, 0x00, 0x00, 0x00,
  0x32, 0x2e, 0x31, 0x37, 0x2e, 0x30, 0x00, 0x00, 0x92, 0xf5, 0xff, 0xff,
  0x04, 0x00, 0x00, 0x00, 0x10, 0x00, 0x00, 0x00, 0x32, 0x2e, 0x31, 0x37,
  0x2e, 0x30, 0x00, 0x00, 0x00, 0x00, 0x00, 0x00, 0x00, 0x00, 0x00, 0x00,
  0x90, 0xe2, 0xff, 0xff, 0x94, 0xe2, 0xff, 0xff, 0x98, 0xe2, 0xff, 0xff,
  0x9c, 0xe2, 0xff, 0xff, 0xbe, 0xf5, 0xff, 0xff, 0x04, 0x00, 0x00, 0x00,
  0x00, 0x08, 0x00, 0x00, 0xbf, 0x10, 0xf9, 0xf6, 0x3d, 0x26, 0xcc, 0xd0,
  0x0e, 0xec, 0xe8, 0x22, 0x4d, 0xb3, 0xde, 0x34, 0xc3, 0xf9, 0x1a, 0x15,
  0x0a, 0xa7, 0x15, 0x6a, 0x7f, 0xa3, 0x30, 0x18, 0xeb, 0x8d, 0x21, 0xee,
  0x2b, 0xc4, 0x77, 0xe4, 0xf4, 0xf4, 0xf7, 0x56, 0x2f, 0x06, 0x47, 0x05,
  0x23, 0x56, 0xf3, 0xd2, 0x52, 0x21, 0xf5, 0xc1, 0xb9, 0x4b, 0xdf, 0x03,
  0x33, 0xd5, 0x0b, 0xd8, 0xf8, 0x05, 0xac, 0x59, 0xdb, 0x27, 0x7f, 0xb4,
  0xfd, 0x25, 0x45, 0xbb, 0xf3, 0x1c, 0x27, 0x11, 0x4a, 0xf0, 0xda, 0x39,
  0x12, 0x12, 0x0c, 0x65, 0x3d, 0xd2, 0xfc, 0x6a, 0x18, 0x1e, 0xf1, 0x21,
  0xf7, 0xe8, 0x2c, 0xd7, 0xfe, 0x01, 0x7c, 0x3d, 0x33, 0x14, 0x06, 0xd4,
  0xc0, 0x18, 0xed, 0x67, 0x0a, 0x62, 0xbb, 0xe1, 0x2f, 0x3f, 0xe2, 0xf9,
  0x14, 0xc8, 0x43, 0x22, 0xdd, 0xa9, 0xe0, 0xab, 0x00, 0xdd, 0xf3, 0x22,
  0xef, 0xc1, 0x42, 0x63, 0x01, 0x62, 0xd8, 0x0f, 0xeb, 0xb9, 0x4c, 0x25,
  0x9c, 0x2b, 0x17, 0xae, 0x33, 0x5a, 0x12, 0x29, 0x55, 0x56, 0x48, 0xce,
  0x3f, 0xf7, 0xdd, 0xe1, 0x50, 0x34, 0xc4, 0xbd, 0x26, 0x0b, 0xe1, 0xc6,
  0xd4, 0x90, 0x17, 0xb1, 0x61, 0xf6, 0x3c, 0xaf, 0x7f, 0x0b, 0x27, 0xd9,
  0x55, 0x1b, 0x41, 0xad, 0x17, 0x12, 0xf6, 0x0c, 0xd0, 0x72, 0x3a, 0x53,
  0x34, 0xd6, 0xcb, 0x9c, 0x63, 0x26, 0xe2, 0xf4, 0x43, 0xa9, 0xb2, 0x4d,
  0xb3, 0xd7, 0xdd, 0x39, 0xd8, 0xac, 0x07, 0x58, 0x02, 0x32, 0xbc, 0x13,
  0xbe, 0x2f, 0x3a, 0xf7, 0x0a, 0x40, 0x03, 0xbc, 0xf7, 0xf9, 0x3c, 0x51,
  0x22, 0x19, 0xed, 0xa9, 0x17, 0x31, 0xd3, 0x26, 0x7f, 0xd1, 0x0f, 0x9f,
  0x1d, 0xfe, 0x3c, 0xc6, 0xee, 0xa7, 0x34, 0xd7, 0x4e, 0x1e, 0xcf, 0xef,
  0xef, 0x6f, 0x40, 0x58, 0xce, 0x36, 0xc6, 0x1b, 0x41, 0xf5, 0x9a, 0xd2,
  0x53, 0x44, 0xd9, 0x4f, 0xd7, 0x2f, 0x39, 0xdc, 0x0f, 0x15, 0x3c, 0x42,
  0x37, 0x3b, 0x47, 0xc9, 0x50, 0x68, 0x0d, 0x92, 0x00, 0x5d, 0xc9, 0x06,
  0x7f, 0xed, 0x45, 0x0d, 0xd2, 0x3d, 0xa7, 0xb7, 0x45, 0x0a, 0xd3, 0x28,
  0x65, 0xc4, 0xf8, 0x18, 0x01, 0xd5, 0x06, 0xf1, 0x2f, 0xa9, 0x06, 0xf6,
  0x20, 0x4e, 0x08, 0xac, 0x37, 0xe6, 0xab, 0x5c, 0x9b, 0xe8, 0x23, 0x3d,
  0x71, 0x6d, 0xad, 0x2d, 0xbf, 0x65, 0xc5, 0x22, 0x22, 0x22, 0xda, 0xcf,
  0xa4, 0x3d, 0xff, 0x18, 0x64, 0xf4, 0x31, 0x13, 0xc4, 0x38, 0xdf, 0xbd,
  0xd2, 0x7f, 0x36, 0xd0, 0x1c, 0xfc, 0x34, 0xde, 0xcc, 0x6f, 0x43, 0xd3,
  0x14, 0xb3, 0x22, 0x61, 0x2a, 0x24, 0xf6, 0xde, 0x38, 0xbd, 0x3b, 0xb4,
  0xed, 0xcf, 0xf4, 0xc6, 0x5e, 0x5b, 0x5c, 0xca, 0xf8, 0x28, 0xcc, 0x55,
  0x45, 0x24, 0xb8, 0xc3, 0x8c, 0x9c, 0xb8, 0x04, 0xf7, 0x73, 0xf2, 0x25,
  0xa4, 0x9c, 0xbb, 0x20, 0xaf, 0x31, 0xd3, 0x24, 0x3d, 0xbd, 0xd3, 0x84,
  0x9c, 0x56, 0x33, 0x84, 0xd9, 0xff, 0xa3, 0xc0, 0x81, 0x0d, 0x6d, 0x07,
  0x68, 0x8c, 0xa5, 0xd5, 0x6a, 0x94, 0x11, 0x72, 0xea, 0x05, 0xd9, 0xab,
  0x40, 0xa3, 0xdf, 0xc6, 0xc2, 0xd6, 0xb0, 0x2d, 0xe8, 0xa9, 0x27, 0x27,
  0xe1, 0x49, 0xd6, 0x15, 0x4d, 0x42, 0x4b, 0xac, 0xd8, 0xd9, 0x7f, 0xc5,
  0x23, 0xd4, 0x0e, 0x05, 0x6e, 0x11, 0xfd, 0x36, 0x78, 0xd8, 0xe0, 0x45,
  0xd3, 0x19, 0x1b, 0xcc, 0x4e, 0xcd, 0x3a, 0x41, 0x0c, 0x17, 0xe0, 0x58,
  0x07, 0xb7, 0x50, 0x02, 0x6f, 0x45, 0x74, 0x06, 0xb9, 0x1d, 0x0b, 0x67,
  0x9f, 0x10, 0x34, 0xf2, 0xad, 0x17, 0x1b, 0x13, 0xbc, 0x51, 0xa7, 0x35,
  0x30, 0xf6, 0x29, 0x14, 0xc8, 0x2f, 0x62, 0x24, 0x1f, 0xff, 0x2d, 0x05,
  0x14, 0xcb, 0xf8, 0xe7, 0xd0, 0xcf, 0xcb, 0xdf, 0xe9, 0xc8, 0x23, 0xb8,
  0x27, 0x15, 0x6b, 0x28, 0x40, 0x42, 0x22, 0x0d, 0x36, 0x7b, 0x3d, 0xa1,
  0xae, 0x44, 0x4c, 0x41, 0x39, 0xfd, 0x6c, 0xdb, 0x09, 0x18, 0x1c, 0xc0,
  0x06, 0xa3, 0x06, 0x2f, 0xe3, 0x2d, 0x17, 0x3b, 0x73, 0xbb, 0x6d, 0x05,
  0x16, 0x81, 0x48, 0xb5, 0x10, 0x4d, 0xd0, 0xad, 0xce, 0x62, 0xe1, 0xdb,
  0x59, 0x46, 0xb3, 0x99, 0x6e, 0x3d, 0x96, 0x67, 0x50, 0x32, 0x6a, 0xdc,
  0x1b, 0x0b, 0x45, 0xaa, 0x99, 0xd8, 0x40, 0x39, 0x2c, 0xbe, 0xec, 0xb6,
  0xcb, 0x3a, 0xaf, 0x8f, 0x01, 0xe6, 0x20, 0x42, 0x09, 0x7c, 0x00, 0x5d,
  0x39, 0x06, 0xe7, 0x9c, 0xc6, 0xbe, 0x22, 0xb0, 0x7f, 0x43, 0x19, 0xbe,
  0xf2, 0x39, 0xe7, 0xbe, 0x23, 0x8d, 0xf3, 0x3a, 0x19, 0x58, 0xd3, 0x18,
  0x9c, 0x3a, 0x10, 0x0d, 0x1e, 0xbe, 0x0f, 0xc1, 0x02, 0xf2, 0x37, 0xda,
  0xe0, 0x12, 0xf6, 0xfa, 0x37, 0xcf, 0xbc, 0x3b, 0x3a, 0x32, 0xe9, 0xfd,
  0xf6, 0x40, 0x20, 0x0a, 0xda, 0x16, 0x31, 0x53, 0x2f, 0xe0, 0xf2, 0x43,
  0xd6, 0xed, 0xf9, 0xea, 0x61, 0xe4, 0x59, 0x11, 0x0f, 0x20, 0x6c, 0x04,
  0x81, 0x09, 0xfb, 0x54, 0xd0, 0x35, 0x24, 0x19, 0x0c, 0x1f, 0xf6, 0x3a,
  0xc9, 0xc8, 0x4d, 0xf9, 0x43, 0xea, 0x12, 0x00, 0x0f, 0xf7, 0x3c, 0x11,
  0x10, 0x20, 0xd0, 0x30, 0x2b, 0xb6, 0x11, 0x15, 0xdb, 0xee, 0xe3, 0x29,
  0x24, 0xbe, 0x2f, 0x4c, 0x6c, 0xd2, 0xcb, 0x05, 0x0e, 0xee, 0xe0, 0x81,
  0xa2, 0x23, 0x54, 0xb3, 0x2c, 0x06, 0x1d, 0x36, 0xf5, 0x01, 0xb8, 0x08,
  0x09, 0x4a, 0x92, 0x12, 0x59, 0xe8, 0xdb, 0xf1, 0x19, 0x0e, 0x11, 0x25,
  0xff, 0xb7, 0x47, 0x26, 0x1c, 0xd6, 0xc0, 0xbb, 0xf8, 0x1d, 0x3b, 0x42,
  0xee, 0x0c, 0x23, 0xc2, 0x44, 0xac, 0xb8, 0xec, 0x03, 0xbf, 0xdf, 0xe4,
  0xb3, 0x37, 0xca, 0xed, 0xe8, 0xeb, 0x49, 0x51, 0xc8, 0xff, 0xb6, 0x35,
  0xe5, 0xd3, 0x3c, 0xdb, 0x00, 0x64, 0x33, 0x24, 0x7c, 0x22, 0x0a, 0x13,
  0x0a, 0xd2, 0xf0, 0x3b, 0xf6, 0x1e, 0x30, 0x15, 0x42, 0xc9, 0x0d, 0x1a,
  0x52, 0x0a, 0xed, 0x07, 0x02, 0xa4, 0x22, 0x40, 0x1c, 0x29, 0x14, 0x14,
  0x16, 0xf0, 0xd2, 0x2a, 0x81, 0x10, 0x28, 0xfe, 0xcc, 0x5a, 0xf2, 0x41,
  0xe1, 0x60, 0x4b, 0xde, 0xb6, 0xe5, 0x56, 0x0e, 0x35, 0xb4, 0x7b, 0xbf,
  0x3b, 0xd3, 0x6e, 0x02, 0x19, 0x68, 0xd5, 0x01, 0xa2, 0x60, 0x44, 0x81,
  0x20, 0x52, 0x4c, 0xc0, 0xd1, 0x64, 0x49, 0x16, 0xa9, 0x8d, 0x0b, 0x84,
  0x22, 0xcc, 0x3d, 0x4a, 0xec, 0xd0, 0x41, 0x12, 0x7f, 0xe5, 0x75, 0xab,
  0xe1, 0xef, 0x66, 0x8e, 0x01, 0x72, 0x05, 0xd9, 0x43, 0x45, 0x47, 0x3d,
  0xa7, 0x24, 0x5e, 0x21, 0x03, 0xed, 0x42, 0xb7, 0xe4, 0x3a, 0xe8, 0x1f,
  0x64, 0x63, 0xbe, 0x1c, 0xd5, 0x55, 0xcd, 0x16, 0x42, 0xec, 0x3a, 0x58,
  0x7f, 0x06, 0xa6, 0x60, 0xc9, 0xfa, 0xc2, 0x3d, 0x39, 0x17, 0x4b, 0x62,
  0x41, 0x56, 0x6f, 0x2f, 0x03, 0xef, 0x3a, 0x34, 0xe2, 0x1b, 0xe8, 0x34,
  0xc3, 0x21, 0xef, 0x39, 0x06, 0x0a, 0x25, 0x69, 0x3c, 0xba, 0x0c, 0xa0,
  0x25, 0x3a, 0x60, 0x43, 0xeb, 0xf8, 0xc4, 0x2b, 0x2f, 0xca, 0x3b, 0xd4,
  0x07, 0x48, 0xef, 0x1c, 0xe4, 0x2b, 0x02, 0xe5, 0x31, 0xa1, 0x3f, 0x03,
  0x1d, 0x04, 0x22, 0xd4, 0x0c, 0x0c, 0x18, 0xcd, 0x6a, 0x11, 0x06, 0xdc,
  0x34, 0xdd, 0xff, 0xc4, 0xed, 0x40, 0xf1, 0xe5, 0x7f, 0x17, 0x4c, 0xd0,
  0x09, 0x0a, 0x26, 0xce, 0x16, 0xc6, 0x1a, 0x12, 0xe6, 0xb5, 0x29, 0xff,
  0x38, 0xf9, 0xd7, 0x34, 0xb9, 0x25, 0x48, 0xcf, 0x32, 0x1c, 0xce, 0x0a,
  0x17, 0x39, 0xd4, 0x51, 0x02, 0xfb, 0x0d, 0x01, 0xac, 0xf7, 0xd9, 0xd7,
  0x52, 0x36, 0x1b, 0xac, 0x38, 0x49, 0xab, 0xff, 0xfc, 0xe4, 0x2b, 0xc3,
  0x68, 0x34, 0x6b, 0xfa, 0xb7, 0x3a, 0x99, 0xbb, 0xe5, 0xc0, 0x8d, 0x34,
  0x40, 0x52, 0xe8, 0xdb, 0x59, 0x43, 0x51, 0x46, 0x54, 0xed, 0xd1, 0xe3,
  0x7f, 0xef, 0x18, 0x13, 0xf1, 0x65, 0xb7, 0x54, 0xbb, 0x2a, 0xfb, 0xc2,
  0x2b, 0x4d, 0x26, 0xe3, 0x5d, 0x39, 0xcf, 0x56, 0x2a, 0xf4, 0x6a, 0xe1,
  0x91, 0x18, 0x6c, 0x17, 0x3c, 0xd6, 0x30, 0xb1, 0x43, 0x44, 0x2d, 0x09,
  0x81, 0x4c, 0x3f, 0xe1, 0x7c, 0x78, 0x2f, 0x0d, 0xa2, 0x3e, 0xb9, 0x30,
  0x20, 0xc5, 0x1d, 0xc3, 0x2d, 0x44, 0x46, 0xd5, 0x79, 0x05, 0x42, 0xf7,
  0x0b, 0xb4, 0x48, 0xdc, 0xe7, 0xee, 0xf4, 0xbc, 0xf5, 0xe1, 0xf6, 0x44,
  0xb5, 0xcd, 0xf4, 0x15, 0x62, 0x05, 0x16, 0xf0, 0xfc, 0xd1, 0x14, 0x06,
  0x2c, 0xec, 0x6d, 0x14, 0xd2, 0x28, 0xf7, 0xc6, 0x23, 0xea, 0x25, 0xd1,
  0x07, 0x1e, 0xc2, 0xf8, 0x1e, 0x76, 0xcc, 0xae, 0x1b, 0x78, 0x66, 0x01,
  0xdc, 0xe5, 0x1d, 0xfb, 0xf1, 0x04, 0xc9, 0x3b, 0x50, 0x4f, 0xd8, 0x32,
  0x7f, 0xec, 0xea, 0xab, 0x61, 0xe7, 0xe8, 0x0e, 0x5f, 0xfe, 0xed, 0xb6,
  0x09, 0x35, 0xff, 0x57, 0xdb, 0x1c, 0xe9, 0x31, 0x97, 0x15, 0xda, 0x2a,
  0x30, 0x00, 0x9d, 0x8f, 0x78, 0x6f, 0x2b, 0xd6, 0x01, 0xf4, 0xca, 0x15,
  0x98, 0x16, 0xcb, 0x81, 0xaf, 0xca, 0xbc, 0x12, 0xbf, 0xd9, 0x89, 0xe6,
  0xca, 0x00, 0x88, 0x9a, 0x42, 0x40, 0x65, 0x11, 0x28, 0xf2, 0xb8, 0xec,
  0x81, 0x63, 0x44, 0xa4, 0xed, 0xe7, 0xca, 0xb5, 0x03, 0x2b, 0xb9, 0x19,
  0x1d, 0xe5, 0x94, 0xe6, 0x9b, 0x21, 0xc2, 0x58, 0xba, 0xb2, 0xfb, 0x1c,
  0x5d, 0x52, 0xf4, 0x05, 0x5e, 0x17, 0xc2, 0xf2, 0x29, 0xd0, 0x47, 0x9c,
  0x9e, 0xec, 0x42, 0xf9, 0x7f, 0x2a, 0xd6, 0xbc, 0x5a, 0x2a, 0xf5, 0xfc,
  0x85, 0xf2, 0x2d, 0xc9, 0x7c, 0x0c, 0x11, 0x17, 0x9e, 0x32, 0xeb, 0x18,
  0xfb, 0xa0, 0xe8, 0x28, 0x52, 0x59, 0x20, 0xf2, 0x67, 0xb4, 0x57, 0x31,
  0x22, 0x83, 0x3e, 0xe7, 0x4e, 0x3a, 0x09, 0x02, 0x21, 0x5d, 0x4d, 0x44,
  0x05, 0xe8, 0xc1, 0xa9, 0x7f, 0x32, 0xf8, 0x6d, 0xe1, 0x05, 0xdb, 0x0e,
  0x49, 0x30, 0x02, 0xab, 0x39, 0x4b, 0xdb, 0x30, 0x63, 0x61, 0xaf, 0xfc,
  0x38, 0xdf, 0xe2, 0x36, 0xae, 0x25, 0xf3, 0xa9, 0x03, 0x52, 0x5a, 0xa4,
  0x0f, 0xc4, 0x02, 0xd1, 0xb5, 0x3a, 0x40, 0x07, 0x65, 0x51, 0xbf, 0xed,
  0x6b, 0x96, 0x00, 0xdc, 0xeb, 0xb6, 0x50, 0xc6, 0x00, 0x2f, 0x20, 0xd0,
  0xda, 0x64, 0xf3, 0xf7, 0xfc, 0x12, 0x18, 0xee, 0xbc, 0xe0, 0x71, 0xbd,
  0x20, 0xf2, 0x18, 0x2e, 0x50, 0xed, 0x1c, 0x70, 0x4c, 0xd5, 0x03, 0x11,
  0xfd, 0x2c, 0xee, 0x15, 0xc5, 0xf6, 0x55, 0x55, 0x7f, 0x07, 0x18, 0x2b,
  0xd2, 0xbe, 0xd5, 0x2f, 0xfb, 0xec, 0x0e, 0x45, 0xd5, 0x1b, 0x58, 0xf4,
  0xaf, 0x16, 0xed, 0x2b, 0x04, 0x37, 0xd6, 0xfa, 0x07, 0x01, 0xad, 0x23,
  0xe9, 0x1c, 0x31, 0x59, 0x1f, 0xbd, 0x41, 0xec, 0x3c, 0xe1, 0x33, 0x39,
  0x20, 0xe6, 0x60, 0x05, 0x37, 0x6a, 0x28, 0xed, 0xdd, 0xff, 0x2b, 0x70,
  0x14, 0xd9, 0x03, 0x47, 0xa5, 0x39, 0x2d, 0x12, 0xca, 0xb2, 0x24, 0x51,
  0x75, 0xf0, 0xf6, 0xc5, 0x94, 0xdb, 0xb8, 0x02, 0x04, 0x1d, 0x7f, 0xfb,
  0xf8, 0x21, 0x2d, 0xc4, 0x0f, 0x7e, 0xec, 0xe3, 0x10, 0x4d, 0x82, 0x56,
  0x57, 0x6c, 0xcc, 0x9f, 0xcd, 0x43, 0x25, 0x32, 0xbc, 0xbe, 0x71, 0xf3,
  0x37, 0x40, 0xae, 0x57, 0x47, 0xc8, 0x1b, 0x25, 0x11, 0x26, 0x08, 0xe7,
  0xbb, 0xe4, 0xdb, 0xed, 0xe0, 0x2c, 0x6c, 0xf7, 0x12, 0xcd, 0x29, 0x4a,
  0x62, 0x77, 0x2d, 0xec, 0x87, 0x59, 0x2a, 0xf0, 0x66, 0x43, 0x58, 0x0b,
  0x2a, 0x60, 0x02, 0xaa, 0xc3, 0xbf, 0xea, 0xda, 0x6c, 0x03, 0x4c, 0x0d,
  0x0a, 0xc4, 0x69, 0xdb, 0xc6, 0x01, 0x5d, 0x56, 0x7f, 0x4c, 0xa8, 0xe8,
  0xd6, 0x0a, 0x9e, 0x15, 0xa2, 0x26, 0x1c, 0x18, 0x96, 0xeb, 0x49, 0x51,
  0x57, 0x2b, 0xda, 0x81, 0x13, 0x09, 0x8d, 0x97, 0x29, 0x43, 0x9f, 0x2c,
  0x03, 0xd3, 0xf0, 0xc0, 0x49, 0x2f, 0x0d, 0x8e, 0x15, 0xaa, 0xcc, 0x1c,
  0xb0, 0xa4, 0x3e, 0xb9, 0x2b, 0xa7, 0xbc, 0xf8, 0x97, 0x97, 0x28, 0x4e,
  0x2a, 0x19, 0x9d, 0x44, 0xbc, 0x92, 0x63, 0xbf, 0x2a, 0xfc, 0x51, 0xde,
  0xc1, 0xd8, 0x58, 0xfd, 0xe4, 0x96, 0xc8, 0x1d, 0x2d, 0x24, 0x9e, 0x9d,
  0xe4, 0xda, 0xf2, 0x55, 0x63, 0x3f, 0x1f, 0xed, 0xf0, 0x18, 0xbd, 0xa7,
  0xf6, 0xa3, 0x32, 0x32, 0x12, 0xe9, 0x05, 0x3d, 0xc8, 0x64, 0x12, 0xed,
  0xd0, 0x47, 0x63, 0x08, 0x24, 0xe4, 0xf7, 0x2c, 0xc0, 0x43, 0xcb, 0x96,
  0x58, 0x3a, 0xd4, 0xbb, 0x6f, 0xaa, 0x62, 0x9f, 0x6b, 0xe6, 0x5e, 0xfa,
  0xf6, 0x81, 0x52, 0x19, 0x11, 0x47, 0xe3, 0x16, 0xa4, 0x4d, 0x1e, 0x58,
  0x83, 0xb4, 0xaf, 0xc3, 0x2c, 0xe4, 0x6b, 0xb9, 0x27, 0x4e, 0x2b, 0xb5,
  0x3d, 0x1d, 0xb6, 0x05, 0x48, 0x2a, 0xc5, 0x5f, 0x3e, 0x42, 0xd6, 0xe7,
  0x4b, 0x8e, 0x78, 0x7d, 0x52, 0xc1, 0xeb, 0xbe, 0xbf, 0xfd, 0x3b, 0x4c,
  0x7f, 0xbe, 0x41, 0x39, 0x32, 0x4f, 0x54, 0x1d, 0xac, 0x3d, 0xe1, 0x31,
  0x39, 0x0e, 0x21, 0xbe, 0xea, 0x74, 0xd3, 0xb7, 0x08, 0x57, 0xec, 0x06,
  0xc2, 0x9c, 0x3d, 0xbb, 0x4c, 0x22, 0x9b, 0xec, 0x69, 0xcd, 0x37, 0x1a,
  0xd5, 0x0b, 0xd0, 0xf1, 0x12, 0xaf, 0x19, 0xe1, 0xc2, 0x24, 0x53, 0xf7,
  0x4d, 0x24, 0x5b, 0xb3, 0xad, 0x2f, 0x4f, 0xfe, 0x8c, 0x5a, 0x09, 0x39,
  0x62, 0x76, 0xe4, 0x46, 0xbc, 0x3d, 0x33, 0x0f, 0x57, 0xc9, 0x05, 0x43,
  0x27, 0xf0, 0x16, 0x22, 0x05, 0x81, 0x55, 0x37, 0xef, 0xc3, 0x25, 0x51,
  0x73, 0xb8, 0x5e, 0xa2, 0x18, 0x2c, 0xc3, 0xfc, 0xa1, 0xc9, 0x29, 0xbb,
  0x1d, 0xd6, 0x05, 0xca, 0xda, 0x28, 0xca, 0x37, 0xed, 0x0e, 0xbe, 0x0d,
  0x47, 0xdc, 0xf1, 0x2e, 0xc4, 0x21, 0x4d, 0xed, 0xe1, 0xf7, 0x31, 0x3d,
  0x7f, 0xc8, 0xf8, 0x38, 0xd1, 0xbb, 0x08, 0x02, 0x30, 0x2b, 0x2a, 0xf3,
  0x72, 0x0f, 0x21, 0x21, 0xc5, 0x31, 0xdc, 0x58, 0x23, 0x38, 0xfb, 0x11,
  0x42, 0x5d, 0xc0, 0x22, 0xeb, 0xdb, 0x28, 0x47, 0xcc, 0xf1, 0x09, 0xe8,
  0x5e, 0xcb, 0xde, 0x19, 0xb9, 0xd0, 0x7f, 0xf1, 0xfc, 0xc6, 0x39, 0xf6,
  0x3b, 0xc2, 0x1b, 0xfe, 0x72, 0x4c, 0x0a, 0xf8, 0xb9, 0xda, 0x09, 0x54,
  0x20, 0x41, 0xfa, 0x46, 0x1d, 0x30, 0xc2, 0x5c, 0x8d, 0xa4, 0xb3, 0xe5,
  0x21, 0xfb, 0xfa, 0x61, 0x0e, 0x7e, 0xf0, 0x13, 0xda, 0x36, 0xde, 0x14,
  0x2a, 0x12, 0xe3, 0x55, 0x51, 0x05, 0xbf, 0xdf, 0x05, 0xce, 0x3e, 0x74,
  0x3c, 0xe7, 0x67, 0xfd, 0x41, 0xe5, 0x2d, 0x72, 0x66, 0xd8, 0xb7, 0x40,
  0x45, 0x2a, 0xf9, 0x0b, 0x30, 0x31, 0xd8, 0x17, 0xdd, 0x11, 0xe2, 0x33,
  0x43, 0xc6, 0x14, 0x08, 0xd7, 0x60, 0x2c, 0xd2, 0x98, 0x5a, 0x45, 0x32,
  0x55, 0x28, 0xe9, 0xce, 0x07, 0x43, 0xde, 0xba, 0x35, 0x31, 0xea, 0xde,
  0x11, 0x1f, 0xee, 0x03, 0xf9, 0x09, 0xfd, 0x2c, 0x16, 0xe6, 0x06, 0x37,
  0xe9, 0xd1, 0xd9, 0xa6, 0x39, 0x08, 0xc0, 0xe3, 0x81, 0xf0, 0xca, 0x07,
  0xca, 0xfd, 0xff, 0xff, 0x04, 0x00, 0x00, 0x00, 0x80, 0x00, 0x00, 0x00,
  0x34, 0xae, 0xe1, 0xbe, 0x6f, 0xf4, 0xa4, 0xbe, 0x37, 0x6f, 0xfc, 0x3e,
  0x18, 0x2e, 0x03, 0x3f, 0x43, 0xcf, 0x03, 0x3f, 0x00, 0x49, 0xa3, 0x3e,
  0x1b, 0x65, 0x68, 0xbe, 0x98, 0x33, 0x05, 0xbf, 0x71, 0xe7, 0xeb, 0x3e,
  0xcd, 0x25, 0x0e, 0x3f, 0xaa, 0xa3, 0xa8, 0xbe, 0x03, 0x82, 0x65, 0x3e,
  0x43, 0xbb, 0x64, 0x3e, 0x37, 0x6f, 0xc1, 0x3e, 0xfe, 0x86, 0x36, 0xbe,
  0x58, 0x05, 0x10, 0x3f, 0xa2, 0x3c, 0xfd, 0x3e, 0x99, 0xf8, 0x8b, 0x3e,
  0x67, 0xfe, 0x6f, 0x3e, 0x98, 0xcc, 0xc4, 0x3e, 0x40, 0x1e, 0x72, 0x3e,
  0x23, 0x6f, 0xff, 0x3e, 0x14, 0x63, 0x43, 0xbe, 0x58, 0x27, 0xcb, 0xbe,
  0xe2, 0xe1, 0xb1, 0x3e, 0xfc, 0xe0, 0x36, 0x3d, 0x8c, 0x46, 0xc9, 0x3e,
  0x1b, 0xf5, 0xc4, 0xbe, 0x23, 0x9b, 0x95, 0x3e, 0x17, 0x3c, 0x05, 0xbf,
  0x87, 0x5c, 0x19, 0xbf, 0x4d, 0xfd, 0x01, 0x3f, 0x56, 0xfe, 0xff, 0xff,
  0x04, 0x00, 0x00, 0x00, 0x04, 0x00, 0x00, 0x00, 0x2d, 0xb4, 0xdf, 0xbd,
  0x66, 0xfe, 0xff, 0xff, 0x04, 0x00, 0x00, 0x00, 0x80, 0x00, 0x00, 0x00,
  0x8d, 0x44, 0x13, 0x3e, 0x76, 0xb9, 0x28, 0x3e, 0x00, 0xb5, 0x03, 0x3d,
  0x41, 0x30, 0x26, 0xbd, 0x51, 0xb1, 0x1c, 0xbd, 0xb0, 0x7e, 0xe7, 0x3c,
  0xf0, 0x7f, 0x92, 0xbc, 0x8e, 0x55, 0x04, 0x3e, 0x40, 0x3f, 0x30, 0x3b,
  0x6c, 0x40, 0x09, 0xbd, 0xd4, 0xcc, 0x5a, 0x3e, 0x54, 0x3d, 0x92, 0xbd,
  0x76, 0xad, 0x93, 0xbd, 0x5f, 0x48, 0x4f, 0x3c, 0x3a, 0x14, 0x2f, 0x3e,
  0xc0, 0x52, 0xb7, 0xbc, 0xa5, 0xff, 0x60, 0x3c, 0x16, 0x30, 0x52, 0xbd,
  0xf3, 0x9c, 0x18, 0xbb, 0x45, 0x43, 0x06, 0xbc, 0x26, 0x9b, 0x19, 0xbd,
  0x51, 0xa3, 0x44, 0xbb, 0x06, 0xe5, 0x4d, 0x3e, 0x2c, 0x1b, 0xe9, 0x3d,
  0xa6, 0x45, 0x5a, 0xbd, 0xea, 0x43, 0x35, 0xbd, 0xa1, 0x03, 0x65, 0xbd,
  0xfa, 0x27, 0x05, 0x3e, 0x25, 0x73, 0x31, 0xbd, 0x48, 0x72, 0x2f, 0x3e,
  0x7f, 0x4e, 0x24, 0x3e, 0x88, 0x27, 0xba, 0xbc, 0xf2, 0xfe, 0xff, 0xff,
  0x04, 0x00, 0x00, 0x00, 0x00, 0x01, 0x00, 0x00, 0x4a, 0x33, 0x09, 0x3d,
  0xeb, 0x95, 0x97, 0xbc, 0xd0, 0x19, 0x4e, 0x3e, 0x37, 0x44, 0x3b, 0x3c,
  0xcc, 0xbc, 0x2a, 0xbc, 0xa7, 0x29, 0xc9, 0x3d, 0x46, 0x22, 0xcd, 0x3a,
  0x01, 0xca, 0xd3, 0xbd, 0x3c, 0x58, 0xf6, 0x3d, 0xee, 0xd1, 0x81, 0xbd,
  0x0f, 0x24, 0x95, 0xbc, 0xca, 0x5e, 0xfe, 0x3b, 0x8a, 0x99, 0x58, 0x3e,
  0x0e, 0x7e, 0x47, 0xbc, 0x55, 0xf4, 0x0a, 0xbe, 0xf9, 0xc6, 0x0b, 0x3e,
  0xa6, 0x25, 0xf8, 0xbc, 0x98, 0x85, 0x0c, 0x3d, 0xa9, 0xed, 0x9a, 0x3d,
  0x08, 0x9e, 0x17, 0xbd, 0x1c, 0xa5, 0xf5, 0x3d, 0xff, 0x90, 0x85, 0x3d,
  0xb6, 0x0e, 0x48, 0x3d, 0xdd, 0xd3, 0x48, 0x3e, 0x51, 0xc0, 0x7c, 0x3e,
  0xd5, 0xaf, 0x60, 0x3c, 0xdd, 0x19, 0xd2, 0xbd, 0x94, 0xde, 0xee, 0x3d,
  0x0a, 0xdd, 0xc9, 0xbc, 0x90, 0xff, 0x98, 0x3d, 0x37, 0x08, 0x25, 0x3c,
  0xa2, 0x10, 0xba, 0xbd, 0xc3, 0xf1, 0x35, 0x3e, 0xd4, 0x6b, 0xac, 0x3d,
  0x32, 0x73, 0x2f, 0x3e, 0xe7, 0x4e, 0xa0, 0x3c, 0x4a, 0x20, 0xc9, 0xb9,
  0x30, 0x38, 0x9d, 0x3d, 0x7a, 0x08, 0x0c, 0x3d, 0x9a, 0x14, 0x1a, 0x3e,
  0xbd, 0x7f, 0xbe, 0x3b, 0x3a, 0x20, 0xdb, 0x3d, 0xd0, 0xa6, 0x02, 0xbc,
  0xb6, 0x80, 0xb2, 0x3d, 0x93, 0x40, 0x26, 0x3e, 0x79, 0xa8, 0x8d, 0x3e,
  0xdd, 0x04, 0xc8, 0x3d, 0xf8, 0xdc, 0xe2, 0x3d, 0xd1, 0xea, 0x4d, 0x3d,
  0x5f, 0xe6, 0x23, 0x3e, 0x55, 0x6f, 0x92, 0x3d, 0x7c, 0xfd, 0x3d, 0xbc,
  0x93, 0xa0, 0xa2, 0x3d, 0x7e, 0x89, 0x2b, 0xbd, 0x2d, 0x29, 0xee, 0x3d,
  0x87, 0xb3, 0x33, 0x3e, 0xcd, 0x9a, 0xde, 0xbc, 0x15, 0x6e, 0xb8, 0x3d,
  0x6e, 0xca, 0xd9, 0x3d, 0x0c, 0xbd, 0xbb, 0xbc, 0x7b, 0xc8, 0x0f, 0x3e,
  0xeb, 0x86, 0xb2, 0xbc, 0xd7, 0x5a, 0x4b, 0xbd, 0x58, 0x54, 0x28, 0x3e,
  0x00, 0x00, 0x06, 0x00, 0x08, 0x00, 0x04, 0x00, 0x06, 0x00, 0x00, 0x00,
  0x04, 0x00, 0x00, 0x00, 0x00, 0x0c, 0x00, 0x00, 0x49, 0xe5, 0x90, 0xbe,
  0x20, 0xb6, 0x92, 0xbe, 0x58, 0xae, 0xf7, 0x3d, 0xfc, 0xaa, 0x66, 0x3e,
  0x52, 0xa7, 0x3b, 0x3e, 0x52, 0xda, 0x8c, 0xbe, 0x2b, 0x97, 0x8f, 0x3d,
  0xc8, 0xf1, 0x11, 0xbe, 0x33, 0x3e, 0x9c, 0x3e, 0x41, 0xfb, 0x97, 0x3e,
  0xb7, 0xfe, 0xbe, 0xbd, 0x46, 0xc6, 0xe4, 0xbe, 0xb5, 0x12, 0xe6, 0xbd,
  0x34, 0x20, 0x57, 0xbd, 0xef, 0x6a, 0x2c, 0x3e, 0xc2, 0x00, 0x3f, 0x3e,
  0x66, 0xde, 0xcf, 0xbd, 0xed, 0xd2, 0x43, 0x3e, 0x91, 0x8e, 0x3c, 0xbe,
  0x20, 0x74, 0x0c, 0xbe, 0x61, 0x96, 0xd8, 0xbc, 0x95, 0x6a, 0x13, 0x3e,
  0xbe, 0xee, 0x81, 0xbe, 0x2c, 0x75, 0x7c, 0xbc, 0x22, 0x19, 0xe3, 0x3b,
  0x2c, 0xff, 0x2d, 0x3e, 0xf8, 0xf2, 0x07, 0xbe, 0x3d, 0x5b, 0xbc, 0xbd,
  0x2a, 0x3d, 0xa1, 0xbe, 0xe4, 0x6d, 0xd3, 0x3c, 0x30, 0xc2, 0x3e, 0x3e,
  0xeb, 0xe5, 0x8f, 0x3d, 0x2f, 0xf2, 0x1b, 0xbe, 0x64, 0xf3, 0x85, 0xbe,
  0x93, 0x26, 0x84, 0xbe, 0xc0, 0xda, 0xb2, 0x3e, 0xf0, 0xd2, 0xf5, 0x3d,
  0x0d, 0x2e, 0xa2, 0xbe, 0x05, 0x75, 0x2a, 0x3e, 0x17, 0x33, 0x5c, 0x3e,
  0xc1, 0x16, 0x3d, 0x3e, 0xee, 0xd8, 0x03, 0x3e, 0xf8, 0xb6, 0xd1, 0x3d,
  0x3b, 0x02, 0x93, 0x3e, 0xd2, 0x28, 0x4d, 0xbe, 0x9f, 0x4a, 0xaa, 0x3e,
  0x55, 0x9e, 0x7c, 0xbd, 0x0b, 0x73, 0x23, 0xbd, 0x05, 0xa9, 0xaf, 0xbe,
  0xe5, 0x66, 0x57, 0xbe, 0xf0, 0xef, 0x76, 0xbd, 0x9c, 0x38, 0x85, 0x3b,
  0x0e, 0x5c, 0x2f, 0x3e, 0x49, 0x15, 0x8d, 0xbe, 0xab, 0x70, 0xe3, 0xbc,
  0x6c, 0xc9, 0x20, 0xbe, 0x47, 0xe9, 0x45, 0xbd, 0x24, 0x3a, 0x26, 0x3e,
  0x7a, 0x77, 0xaf, 0xbe, 0xb5, 0x56, 0xa1, 0xbe, 0x69, 0xb8, 0xbd, 0xbe,
  0x46, 0xd9, 0x9f, 0x3e, 0x24, 0x1d, 0x93, 0xbc, 0x3b, 0xd8, 0x9c, 0x3e,
  0xf3, 0x7e, 0x6d, 0x3d, 0xf0, 0x37, 0x83, 0x3e, 0x14, 0x9c, 0x71, 0x3e,
  0xf4, 0xc5, 0x2b, 0x3c, 0x6a, 0x2e, 0x74, 0xbe, 0xf5, 0x89, 0x2c, 0x3b,
  0xdd, 0xe3, 0x54, 0x3e, 0x22, 0x27, 0x4b, 0xbe, 0x89, 0xbf, 0x6c, 0xbe,
  0x31, 0x8c, 0x3f, 0xbe, 0x1c, 0xba, 0x8a, 0xba, 0x5f, 0xf7, 0xa6, 0x3c,
  0xda, 0x01, 0x95, 0x3d, 0x9d, 0x65, 0x81, 0xbc, 0xd9, 0xb1, 0xca, 0xbd,
  0x8b, 0xc1, 0x82, 0xbc, 0xd4, 0x74, 0x12, 0xbe, 0x6b, 0x75, 0xd3, 0xbc,
  0x85, 0x2d, 0xe3, 0xbb, 0x82, 0x7b, 0x06, 0x3e, 0x87, 0x59, 0x87, 0xbe,
  0x99, 0x9b, 0x81, 0xbe, 0xff, 0xfa, 0x30, 0x3e, 0x01, 0xc3, 0x3a, 0x3d,
  0xd1, 0xff, 0xdd, 0x3d, 0x16, 0x29, 0xba, 0xbd, 0x8b, 0x74, 0x96, 0xbd,
  0xb6, 0xab, 0x89, 0x3e, 0x46, 0x92, 0x0f, 0xbd, 0x35, 0xa8, 0xe6, 0xbd,
  0xba, 0x77, 0x4d, 0xbe, 0x92, 0xc7, 0x09, 0xbe, 0x9c, 0x44, 0x3b, 0xbe,
  0x89, 0x0c, 0x64, 0x3d, 0x7f, 0x4a, 0x1f, 0xbe, 0x99, 0xea, 0x7d, 0xbe,
  0x85, 0x45, 0x5f, 0xbe, 0xa9, 0x42, 0x26, 0x3d, 0x38, 0x95, 0x44, 0x3e,
  0x2f, 0xff, 0x0b, 0xbe, 0xc7, 0xab, 0xc7, 0xbc, 0xe2, 0x42, 0x89, 0xbd,
  0xc9, 0x11, 0x48, 0xbe, 0x7c, 0xe7, 0xa2, 0x3e, 0x9f, 0x43, 0x51, 0x3d,
  0x37, 0xa6, 0x55, 0xbe, 0xc2, 0x55, 0xe2, 0xbd, 0x17, 0x4e, 0xf1, 0x3d,
  0x4b, 0xf4, 0x87, 0xbe, 0x79, 0xab, 0x8d, 0x3e, 0x9f, 0xa7, 0x5a, 0xbe,
  0x27, 0x36, 0xd1, 0x3d, 0xc6, 0xd9, 0x0f, 0xbd, 0xaa, 0xf8, 0x91, 0xbe,
  0x8d, 0x84, 0x43, 0x3e, 0x17, 0x58, 0x01, 0xbe, 0x2a, 0xb6, 0xa9, 0x3d,
  0xb3, 0x7f, 0x72, 0xbe, 0x5b, 0xf8, 0x37, 0x3e, 0x67, 0x6b, 0x94, 0x3e,
  0x20, 0x20, 0x1e, 0x3e, 0x13, 0xeb, 0x94, 0x3e, 0x7c, 0xbc, 0x01, 0xbd,
  0x7d, 0x7b, 0x81, 0x3e, 0xac, 0x82, 0x13, 0x3e, 0x91, 0x1e, 0x81, 0xbe,
  0xab, 0x76, 0x9d, 0xbe, 0xa8, 0x23, 0x95, 0x3e, 0x59, 0xfa, 0x1f, 0x3d,
  0x4c, 0x87, 0x24, 0x3e, 0xd0, 0x45, 0x96, 0x3d, 0x2b, 0xce, 0x90, 0xbc,
  0xc9, 0x74, 0xc9, 0xbc, 0xa8, 0x36, 0x36, 0xbe, 0xd3, 0x39, 0x54, 0xbe,
  0xdf, 0xae, 0x0a, 0xbe, 0xf7, 0x04, 0x25, 0x3d, 0xef, 0x33, 0xb9, 0x3b,
  0x19, 0xce, 0x91, 0x3e, 0xae, 0x1b, 0x75, 0x3a, 0x4b, 0x05, 0x09, 0x3e,
  0xdd, 0xf6, 0x78, 0x3e, 0x72, 0xca, 0xf9, 0xbd, 0xb4, 0x1e, 0x46, 0xbc,
  0x75, 0x9d, 0xaa, 0xbe, 0x34, 0xb1, 0x43, 0x3e, 0xda, 0xff, 0xaf, 0x3d,
  0xbf, 0x6b, 0x14, 0xbe, 0xa9, 0x11, 0xcd, 0xbd, 0x0d, 0x1f, 0xb2, 0xbe,
  0x1d, 0x2e, 0x42, 0xbe, 0xc3, 0x96, 0x22, 0x3e, 0x9f, 0xa5, 0x53, 0x3e,
  0x7e, 0xce, 0xdc, 0x3d, 0x27, 0x49, 0x29, 0xbd, 0x4c, 0xf4, 0xc1, 0x3d,
  0x5b, 0xf6, 0x2a, 0xbe, 0xe4, 0xc9, 0x4d, 0x3d, 0x78, 0xcb, 0x30, 0xbe,
  0x7f, 0x6f, 0xcd, 0x3d, 0x2c, 0x2f, 0xb9, 0x3d, 0x60, 0x70, 0x06, 0xbd,
  0x7c, 0xb8, 0x8a, 0xbd, 0xf3, 0x6b, 0x78, 0x3e, 0x65, 0xfc, 0x44, 0xbe,
  0xc0, 0x6d, 0x31, 0xbe, 0xc9, 0xbf, 0x96, 0x3e, 0xbe, 0x17, 0x5b, 0xbe,
  0x01, 0x79, 0x87, 0xbe, 0xff, 0x53, 0xee, 0xbd, 0xfc, 0x17, 0x54, 0x3e,
  0x96, 0x66, 0x46, 0xbc, 0x8a, 0x78, 0x6b, 0x3e, 0x75, 0xfa, 0x1b, 0x3e,
  0x05, 0xf1, 0x12, 0x3e, 0xe0, 0xcb, 0x3d, 0x3e, 0xcd, 0x65, 0x9d, 0xbd,
  0xdb, 0x9b, 0xed, 0xbc, 0x57, 0x78, 0x82, 0xbe, 0x17, 0x8f, 0xd4, 0x3d,
  0x5c, 0x58, 0x2d, 0x3c, 0xca, 0x86, 0x78, 0xbe, 0x3b, 0x01, 0x29, 0xbe,
  0x07, 0x1f, 0x8f, 0xbe, 0x58, 0x73, 0xc0, 0xbd, 0xe1, 0x1d, 0xf0, 0xbd,
  0x1e, 0x57, 0x2e, 0xbe, 0x5b, 0x22, 0xe9, 0xbc, 0x34, 0x22, 0x0f, 0x3e,
  0xaa, 0x97, 0xb1, 0x3d, 0x9a, 0x85, 0x90, 0xbe, 0x37, 0x28, 0xee, 0x3d,
  0x70, 0x13, 0x02, 0xbc, 0x40, 0xbc, 0xa5, 0xbd, 0xce, 0x16, 0xea, 0x3a,
  0xd8, 0xf8, 0x84, 0x3e, 0x5b, 0x2d, 0xc0, 0x3d, 0xc0, 0x79, 0x3b, 0xbe,
  0x01, 0x20, 0x0f, 0xbc, 0xff, 0x5b, 0xba, 0xbe, 0xba, 0x86, 0x37, 0xbe,
  0xa3, 0xc2, 0x3c, 0xbe, 0x96, 0x22, 0x56, 0x3e, 0x5a, 0xb4, 0x3f, 0xbe,
  0x64, 0x85, 0xad, 0x3d, 0xed, 0x73, 0x87, 0xbe, 0x4f, 0x6b, 0xd7, 0x3d,
  0x3c, 0xc4, 0xa3, 0x3c, 0x92, 0x23, 0xe1, 0xbd, 0x66, 0xfa, 0xf1, 0x3c,
  0x01, 0x40, 0x5e, 0x3e, 0xae, 0x86, 0xd8, 0x3d, 0xf3, 0x6e, 0xe5, 0x3d,
  0x3c, 0x7c, 0x62, 0x3e, 0x36, 0xc0, 0x8a, 0x3e, 0xa6, 0x85, 0x29, 0x3c,
  0x6a, 0xdd, 0xa6, 0x3b, 0x1c, 0xb5, 0x26, 0x3e, 0xb5, 0x1c, 0xeb, 0xbd,
  0xa1, 0x83, 0x4f, 0x3d, 0x08, 0xab, 0x1e, 0xbe, 0x23, 0x55, 0x5b, 0xbe,
  0x89, 0x63, 0x00, 0x3e, 0x63, 0x05, 0x8b, 0xbe, 0x90, 0x2f, 0x43, 0xbe,
  0xe1, 0x63, 0x6c, 0x3e, 0x6d, 0x43, 0x5b, 0xbd, 0xdf, 0xed, 0x0b, 0xbd,
  0x45, 0x34, 0x2b, 0x3e, 0xbf, 0xd2, 0x0c, 0xbe, 0xc3, 0xb0, 0x5f, 0x3d,
  0xd7, 0x03, 0x0e, 0xbd, 0xa6, 0x4a, 0xe7, 0xbd, 0x43, 0x07, 0xff, 0x3d,
  0x5f, 0xb0, 0x36, 0xbe, 0xbc, 0x58, 0xbd, 0x3d, 0xf4, 0x26, 0x35, 0xbe,
  0xaf, 0x7f, 0x7c, 0xbe, 0xa1, 0x0a, 0x28, 0xbe, 0x59, 0xce, 0x29, 0x3e,
  0x54, 0x3f, 0x4d, 0x3c, 0x10, 0x92, 0x65, 0x3e, 0x2c, 0xa4, 0x8d, 0xbe,
  0x0d, 0xbe, 0x21, 0xbe, 0x83, 0x04, 0xe2, 0x3d, 0xcb, 0xb0, 0x2c, 0xbe,
  0xa2, 0x20, 0x36, 0x3e, 0xbb, 0x5f, 0x72, 0xbc, 0x7b, 0x74, 0x9a, 0xbd,
  0x62, 0xb4, 0x9f, 0xbe, 0x32, 0x97, 0x8a, 0xbc, 0xa9, 0x22, 0xcf, 0xbd,
  0x4f, 0xa5, 0x82, 0x3e, 0xd3, 0xc9, 0x72, 0xbc, 0x0c, 0xaf, 0x69, 0xbe,
  0x22, 0x24, 0x9a, 0x3e, 0x6b, 0x5c, 0xcb, 0x3d, 0x70, 0x4f, 0x73, 0x3e,
  0x90, 0xc6, 0x08, 0xb8, 0x5d, 0x87, 0xd9, 0xbd, 0x86, 0xf9, 0xa5, 0x3d,
  0x8c, 0x10, 0x1b, 0x3e, 0x4a, 0x54, 0x68, 0x3e, 0xb5, 0xe6, 0x52, 0x3e,
  0x39, 0x6a, 0xe7, 0xbd, 0x0a, 0x88, 0xe9, 0xbd, 0x7a, 0x76, 0x50, 0xbd,
  0x98, 0x5a, 0x32, 0x3d, 0x0e, 0x5d, 0x9b, 0xbe, 0xb0, 0x96, 0xf4, 0xbd,
  0x5f, 0x4e, 0x83, 0x3d, 0x1c, 0x4c, 0x4f, 0xbe, 0x9f, 0xbf, 0x9d, 0x3e,
  0x15, 0xf2, 0xa3, 0xbd, 0x10, 0x36, 0x0f, 0xbe, 0xfd, 0x37, 0x0a, 0xbd,
  0x75, 0x70, 0xd8, 0xbc, 0xe8, 0x1f, 0xd7, 0xbc, 0xee, 0x98, 0x83, 0x3e,
  0x61, 0xec, 0xa4, 0xbe, 0xb0, 0x84, 0x19, 0x3d, 0xba, 0xe0, 0x5f, 0xbe,
  0x23, 0x1c, 0x3c, 0xbd, 0x1c, 0x3b, 0x4a, 0x3e, 0xd9, 0xdb, 0x7e, 0x3e,
  0x8c, 0x14, 0x1e, 0x3d, 0x29, 0x7a, 0x72, 0x3e, 0x4f, 0xa8, 0x9b, 0xbe,
  0x5e, 0x77, 0x63, 0xbd, 0x8d, 0xf6, 0x12, 0xbe, 0xf6, 0x45, 0x56, 0x3e,
  0x52, 0x17, 0xce, 0x3c, 0x75, 0xff, 0xd7, 0xbd, 0x82, 0xb8, 0x81, 0xbe,
  0x13, 0xe8, 0xf0, 0x3d, 0xb5, 0xd6, 0xf7, 0xbc, 0x74, 0xd3, 0xb5, 0xbc,
  0x83, 0xf9, 0xf3, 0xbd, 0xe2, 0x36, 0xa3, 0x3b, 0x48, 0x17, 0x02, 0xbe,
  0x1a, 0x53, 0x3f, 0x3c, 0x8c, 0x73, 0x91, 0xbe, 0x09, 0xb4, 0x36, 0xbd,
  0xbe, 0x66, 0x41, 0x3e, 0x40, 0x69, 0x05, 0x3e, 0x40, 0x2d, 0x82, 0x3e,
  0xb5, 0x76, 0x09, 0x3e, 0x5f, 0xa6, 0xa1, 0xbe, 0x15, 0xf7, 0xd7, 0xbd,
  0x8d, 0x0a, 0x3e, 0xbc, 0x99, 0xc6, 0x4f, 0x3c, 0x0d, 0x7c, 0x32, 0xbe,
  0xe5, 0xc9, 0xd2, 0xbc, 0x9d, 0x9d, 0x37, 0xbe, 0xc0, 0xd2, 0x9f, 0x3c,
  0x91, 0xce, 0x59, 0xbe, 0x48, 0x28, 0xa3, 0x3e, 0xb2, 0x71, 0x99, 0x3d,
  0xf2, 0x0f, 0x7d, 0x3d, 0x6e, 0x4a, 0xa3, 0xbe, 0x7a, 0x80, 0x6f, 0x3e,
  0x38, 0xb9, 0x10, 0xbe, 0xad, 0x57, 0x9a, 0x3e, 0xc4, 0xa0, 0x48, 0x3e,
  0x59, 0x3f, 0x97, 0xbd, 0x91, 0x91, 0x13, 0x3d, 0x76, 0x28, 0xab, 0x3e,
  0xa5, 0xb3, 0xc4, 0xbe, 0xaa, 0x46, 0xa4, 0xbe, 0x5e, 0xeb, 0x62, 0x3e,
  0x9f, 0x22, 0x77, 0x3e, 0xd4, 0x92, 0x92, 0x3e, 0xb8, 0xe4, 0xcd, 0x3d,
  0x91, 0x3e, 0x0c, 0x3e, 0xe1, 0xb0, 0xa2, 0xbe, 0xdc, 0x80, 0x62, 0x3e,
  0x8f, 0xd8, 0x6c, 0xbe, 0xfa, 0xa3, 0x42, 0xbe, 0x2a, 0x47, 0xb2, 0xbc,
  0x31, 0x61, 0x00, 0x3e, 0xc2, 0x3e, 0x52, 0x3e, 0x08, 0x69, 0xfc, 0x3d,
  0x17, 0x43, 0xbb, 0xbd, 0xaa, 0x40, 0x98, 0xbe, 0x3a, 0x1b, 0xff, 0xbd,
  0x2b, 0x3c, 0x32, 0xbc, 0x06, 0x1f, 0x73, 0xbd, 0xe2, 0x2c, 0x77, 0x3e,
  0x1d, 0x09, 0xf2, 0x3d, 0x7e, 0x1e, 0x88, 0xbd, 0x09, 0x36, 0x02, 0xbe,
  0x40, 0x85, 0xeb, 0x3e, 0xd5, 0xf0, 0x97, 0x3e, 0xdb, 0x1f, 0x5c, 0x3e,
  0x31, 0x82, 0x13, 0xbe, 0x3f, 0x5b, 0x0a, 0xbb, 0x98, 0x46, 0x16, 0x3e,
  0xb7, 0xf8, 0xcf, 0x3c, 0x01, 0x4a, 0x87, 0x3e, 0x01, 0x9d, 0xdf, 0x3d,
  0xac, 0x5c, 0x35, 0x3d, 0x7e, 0x56, 0x4e, 0x3e, 0x7e, 0xa1, 0xad, 0xbd,
  0x6b, 0x29, 0x99, 0x3e, 0x1e, 0x65, 0x74, 0xbe, 0xb2, 0x1c, 0xf6, 0xbd,
  0xb1, 0xc3, 0xb0, 0xbe, 0x6b, 0xf8, 0x91, 0x3d, 0x1d, 0x5d, 0xf8, 0xbd,
  0x3b, 0x80, 0x60, 0x3d, 0x85, 0xc4, 0x12, 0xbe, 0x87, 0xa4, 0xce, 0xbc,
  0x53, 0x7c, 0xc7, 0xbd, 0x9d, 0x04, 0x6a, 0xbe, 0xc2, 0x6c, 0x46, 0xbe,
  0xde, 0x68, 0x44, 0xbd, 0x29, 0x7b, 0xb3, 0xbd, 0xd0, 0x08, 0x1a, 0xbd,
  0x69, 0x3a, 0x7d, 0xbe, 0x62, 0x2a, 0xb9, 0x3b, 0xad, 0x8e, 0x21, 0xbe,
  0x0f, 0x2c, 0x1d, 0xbe, 0x8f, 0x6f, 0x09, 0xbd, 0xd4, 0xb6, 0x4e, 0xbe,
  0x51, 0x45, 0x50, 0x3e, 0x33, 0xaf, 0x84, 0xbc, 0xbf, 0x92, 0x07, 0x3e,
  0xbc, 0xaf, 0x3b, 0xbe, 0xd3, 0x6e, 0x4f, 0xbe, 0x55, 0xc7, 0xa5, 0xbe,
  0x05, 0x9d, 0x15, 0xbd, 0x2a, 0xd7, 0x7a, 0x3e, 0x6f, 0xdd, 0x4d, 0x3d,
  0xf6, 0x10, 0x3a, 0x3e, 0x0a, 0x12, 0x5c, 0x3e, 0x1d, 0x3e, 0x24, 0x3e,
  0x4e, 0xa9, 0x4d, 0xbe, 0xae, 0x27, 0x3b, 0x3e, 0xc9, 0x57, 0x67, 0xbb,
  0x3d, 0x92, 0xdb, 0x3e, 0x70, 0x3b, 0x10, 0x3e, 0xf3, 0xc0, 0x62, 0x3d,
  0x3b, 0x36, 0x83, 0x3e, 0x78, 0xdf, 0x26, 0xbe, 0xa8, 0xe5, 0x15, 0x3e,
  0x13, 0x02, 0x37, 0xbe, 0x09, 0x7b, 0x50, 0xbe, 0x0a, 0x46, 0xb2, 0x3d,
  0x66, 0xa4, 0x54, 0xbd, 0xd5, 0x83, 0x22, 0x3c, 0x2c, 0x2b, 0x9a, 0x3e,
  0xe7, 0x6d, 0x7a, 0xbe, 0x9e, 0xb5, 0xcd, 0x3c, 0x69, 0x3d, 0x98, 0xbe,
  0x7f, 0xf4, 0x1a, 0xbe, 0x11, 0x7e, 0x52, 0x3e, 0x36, 0xfa, 0xa7, 0x3c,
  0xea, 0x60, 0xae, 0x3e, 0xef, 0x40, 0xdd, 0x3c, 0x99, 0xaa, 0x25, 0xbd,
  0x6d, 0xff, 0x37, 0x3e, 0x4c, 0xee, 0x82, 0x3d, 0x06, 0x40, 0x07, 0x3d,
  0x0c, 0x7a, 0x25, 0xbe, 0xad, 0xe2, 0x2d, 0xbe, 0xeb, 0xc2, 0x0b, 0x3e,
  0x65, 0xdd, 0x39, 0x3e, 0x79, 0x7f, 0x4f, 0xbd, 0x40, 0x64, 0xf6, 0x3c,
  0x6a, 0xad, 0x73, 0x3e, 0xcd, 0x5c, 0x26, 0xbe, 0x1e, 0x69, 0x4f, 0xbe,
  0x58, 0xc4, 0x42, 0x3c, 0xbd, 0x3b, 0xec, 0x3a, 0x53, 0x29, 0xe3, 0xbd,
  0x15, 0x81, 0x52, 0x3e, 0xed, 0x06, 0x95, 0x3e, 0xda, 0x4c, 0x06, 0xbe,
  0xb0, 0x31, 0x7a, 0x3e, 0x47, 0x5f, 0x9a, 0x3d, 0xd7, 0x29, 0xa8, 0x3e,
  0x3b, 0xb3, 0xc9, 0x3e, 0x4c, 0xb7, 0x88, 0x3e, 0xf4, 0x76, 0x38, 0xbe,
  0xeb, 0xc7, 0x7f, 0x3e, 0x5c, 0xc5, 0x26, 0xbe, 0xbc, 0x8c, 0x22, 0x3e,
  0xd0, 0x44, 0xbb, 0xbd, 0xa5, 0xac, 0xf6, 0x3d, 0x0d, 0x40, 0xed, 0xbd,
  0xd6, 0x9a, 0x0f, 0x3d, 0x09, 0x5c, 0x1f, 0xbe, 0xb1, 0xff, 0xb6, 0xbd,
  0x68, 0x42, 0xc3, 0xbd, 0xaf, 0x38, 0x86, 0x3e, 0x50, 0x85, 0x2f, 0xbc,
  0x23, 0x73, 0x3d, 0xbe, 0x3b, 0xd0, 0x54, 0x3e, 0x89, 0xbf, 0x1f, 0x3d,
  0x5c, 0xe6, 0x54, 0xbe, 0x29, 0xaf, 0x17, 0xbe, 0xd6, 0x04, 0x62, 0xbe,
  0x76, 0x18, 0x4e, 0x3e, 0x8c, 0x90, 0x88, 0x3d, 0x06, 0xdc, 0xd2, 0x3c,
  0xe0, 0x2a, 0x4b, 0x3e, 0x99, 0xd3, 0x3c, 0xbe, 0x47, 0xcc, 0x71, 0x3e,
  0x47, 0xa4, 0x0e, 0x3e, 0x86, 0xa1, 0x21, 0x3e, 0x50, 0x29, 0x3c, 0xbe,
  0xf7, 0x00, 0xbd, 0xbe, 0xd9, 0xc1, 0xde, 0xbd, 0x4e, 0xd1, 0xb7, 0x3c,
  0xf2, 0x4f, 0x24, 0xbe, 0xa7, 0x0a, 0x94, 0x3e, 0xce, 0x52, 0x51, 0x3e,
  0x10, 0x55, 0xc7, 0xbd, 0x93, 0x2a, 0xe9, 0xbd, 0x7c, 0x30, 0x46, 0xbd,
  0x97, 0x16, 0x61, 0xbe, 0x4d, 0x28, 0x77, 0xbc, 0xd9, 0x18, 0x8d, 0x3e,
  0x01, 0x34, 0xd3, 0x3e, 0x06, 0x27, 0xac, 0x3e, 0xd8, 0x93, 0x11, 0xbe,
  0x3d, 0x25, 0x64, 0x3e, 0x8c, 0x9f, 0xa0, 0xbe, 0x4b, 0x2d, 0x0c, 0xbe,
  0x82, 0x64, 0x1c, 0x3e, 0x39, 0x21, 0x5a, 0xbd, 0x6b, 0x02, 0x34, 0x3e,
  0x1f, 0xf4, 0x57, 0x3e, 0x56, 0x1a, 0x5f, 0x3e, 0x11, 0x3f, 0x88, 0xbd,
  0xfc, 0x0b, 0x2c, 0x3e, 0x57, 0x21, 0x69, 0xbe, 0x77, 0x07, 0xbf, 0xbe,
  0x0c, 0xf7, 0x5e, 0xbe, 0x5f, 0x2f, 0xec, 0x3c, 0xfa, 0xc6, 0x9b, 0x3e,
  0xa0, 0x0b, 0x9b, 0x3e, 0xd8, 0x7b, 0x75, 0xbe, 0xd5, 0x1e, 0x75, 0xbe,
  0x27, 0x34, 0xe2, 0xbd, 0xf0, 0x19, 0xca, 0xbd, 0xb1, 0x2a, 0x98, 0xbe,
  0xc2, 0x80, 0x65, 0xbe, 0x35, 0x1b, 0x4b, 0x3e, 0xfa, 0x65, 0x54, 0xbd,
  0x84, 0xcb, 0x6f, 0xbd, 0x94, 0x97, 0x84, 0xbe, 0x8d, 0x73, 0x52, 0xbe,
  0xad, 0xdf, 0x8d, 0x3d, 0xf0, 0xe7, 0xa1, 0x3d, 0x2e, 0x24, 0xca, 0xbc,
  0x0c, 0x86, 0x6a, 0xbd, 0xad, 0xc2, 0x86, 0xbe, 0x42, 0xbb, 0x86, 0x3e,
  0x67, 0x8d, 0x76, 0xbd, 0xf0, 0x41, 0x28, 0xbe, 0xd5, 0x54, 0xe0, 0xbd,
  0x07, 0x1c, 0x07, 0xbe, 0x14, 0xf0, 0x3c, 0x3e, 0x66, 0xff, 0xcc, 0xbd,
  0xb1, 0x21, 0x5a, 0x3e, 0xb6, 0x2e, 0x69, 0xbd, 0x55, 0xd6, 0xb2, 0x3e,
  0xfe, 0xcf, 0xda, 0x3a, 0x45, 0xb6, 0x68, 0x3d, 0x36, 0xdd, 0xfd, 0xbd,
  0x4e, 0x59, 0x94, 0x3e, 0x3b, 0x0a, 0x92, 0xbd, 0x4f, 0xb2, 0xa7, 0x3d,
  0xbf, 0xa0, 0xac, 0xbe, 0x4d, 0xaf, 0x0b, 0x3a, 0xaf, 0xde, 0x3a, 0x3e,
  0x49, 0x91, 0x05, 0x3e, 0x9b, 0x6c, 0x3d, 0x3e, 0xf8, 0xe8, 0xbb, 0xbc,
  0xe3, 0x15, 0x83, 0xbc, 0x22, 0x4f, 0x9d, 0xbe, 0xb4, 0xbb, 0x55, 0x3d,
  0x97, 0x8a, 0x2a, 0xbe, 0xc0, 0x38, 0x9e, 0xbe, 0x73, 0xc4, 0x28, 0xbe,
  0xd8, 0x25, 0x93, 0x3d, 0x0d, 0x04, 0x76, 0x3c, 0x32, 0x5a, 0xf4, 0x3d,
  0xed, 0xb6, 0xa8, 0xbe, 0xde, 0x3d, 0x8c, 0x3d, 0x46, 0x4b, 0xdb, 0xbc,
  0xe4, 0x1d, 0xd9, 0x3d, 0x52, 0x99, 0xc2, 0x3d, 0xaf, 0x0d, 0xb0, 0x3c,
  0x0d, 0xfe, 0x68, 0x3e, 0xe1, 0x6c, 0xa4, 0x3e, 0x07, 0xc1, 0x5c, 0x3e,
  0xe2, 0xd8, 0x75, 0x3e, 0x5a, 0xa5, 0x5f, 0xbd, 0x14, 0x9b, 0x81, 0xbe,
  0x38, 0xc2, 0x2d, 0xbe, 0xe9, 0x89, 0x8a, 0xbe, 0xe7, 0xfd, 0x6f, 0xbe,
  0xde, 0xa6, 0xc0, 0x3d, 0x2f, 0x90, 0x1e, 0x3e, 0x57, 0x53, 0x9d, 0xbc,
  0x97, 0x17, 0x7b, 0xbe, 0xd0, 0x75, 0x2e, 0x3d, 0xac, 0x42, 0x33, 0xbe,
  0xee, 0xf2, 0x82, 0xbe, 0xf8, 0x31, 0x42, 0x3e, 0x1d, 0x31, 0x66, 0xbe,
  0x7a, 0x68, 0x54, 0xbe, 0x50, 0x1b, 0x7e, 0x3e, 0x41, 0xfc, 0x85, 0x3e,
  0x02, 0xf2, 0x30, 0x3e, 0xc7, 0xed, 0xa0, 0x3d, 0x4e, 0x3b, 0x18, 0xbe,
  0x43, 0x29, 0x4f, 0xbe, 0xd7, 0xe7, 0x55, 0xbe, 0x89, 0x71, 0x35, 0xbe,
  0x34, 0x19, 0x2c, 0x3e, 0xb7, 0x56, 0x9a, 0x3d, 0x15, 0xd2, 0x47, 0x3e,
  0xe8, 0x01, 0x8a, 0xbd, 0xbf, 0xd5, 0x5b, 0x3e, 0xe6, 0x65, 0xb4, 0xbd,
  0x2c, 0xa3, 0x45, 0xbe, 0x6b, 0xb3, 0x3e, 0xbe, 0xdf, 0x5d, 0x1e, 0xbe,
  0x3f, 0xf4, 0x21, 0xbe, 0x15, 0x69, 0x5d, 0xbe, 0x86, 0x8c, 0xb0, 0x3b,
  0x13, 0x81, 0x8f, 0x3e, 0xd4, 0x3a, 0x0d, 0x3e, 0x0b, 0x00, 0x23, 0x3e,
  0xee, 0xda, 0x2c, 0xbe, 0xfa, 0xfd, 0x24, 0xbe, 0x0b, 0x15, 0x5e, 0x3e,
  0x63, 0x24, 0xd7, 0x3d, 0xfe, 0x45, 0x4d, 0xbe, 0xdd, 0x06, 0x81, 0x3d,
  0x5e, 0xa9, 0xe7, 0x3e, 0xdb, 0xe0, 0xb5, 0x3e, 0xbf, 0x1e, 0x42, 0x3e,
  0x3f, 0x29, 0x17, 0xbd, 0x71, 0x7d, 0x4f, 0x3d, 0x73, 0x0d, 0x8b, 0x3e,
  0x0c, 0xd3, 0x74, 0x3e, 0x7f, 0xd3, 0xf4, 0xbd, 0x3e, 0xa9, 0x4d, 0x3e,
  0x78, 0xaf, 0x52, 0x3e, 0x25, 0x73, 0x46, 0xbd, 0x42, 0xff, 0x8a, 0xbe,
  0xd8, 0x6a, 0xcf, 0x3d, 0xa8, 0xa6, 0x72, 0x3e, 0x94, 0x70, 0xaa, 0xbd,
  0xdc, 0x49, 0xa4, 0x3e, 0x4c, 0xe6, 0x59, 0xbe, 0x67, 0xe2, 0xd5, 0xbd,
  0x40, 0x04, 0x3e, 0x3e, 0x8f, 0xe3, 0xf4, 0xbd, 0xb2, 0xa9, 0xba, 0x3e,
  0x4e, 0x36, 0x99, 0x3c, 0x83, 0x15, 0x3c, 0x3d, 0x3d, 0x44, 0x9b, 0xbd,
  0xfa, 0x9d, 0x89, 0x3e, 0x8b, 0xcc, 0xd9, 0xbd, 0x52, 0x19, 0x78, 0x3e,
  0x7e, 0x99, 0x59, 0xbe, 0x59, 0x74, 0xf0, 0x3b, 0x1e, 0xa3, 0x60, 0xbe,
  0xb7, 0x65, 0x66, 0x3e, 0x1d, 0x72, 0x88, 0x3e, 0x63, 0xa2, 0x3a, 0x3c,
  0x41, 0x3b, 0x9a, 0xbd, 0xe0, 0x75, 0xf2, 0x3d, 0x40, 0x6a, 0x90, 0x3e,
  0x1f, 0x93, 0xa4, 0x3e, 0x27, 0xaa, 0x12, 0xbe, 0x36, 0x5b, 0xbc, 0x3d,
  0x75, 0xf5, 0x73, 0x3e, 0xce, 0xa9, 0xdd, 0x3d, 0x40, 0x57, 0x3b, 0xbe,
  0xcd, 0x3e, 0x68, 0xbd, 0x77, 0x75, 0xcd, 0x3d, 0x39, 0x39, 0xc8, 0xbd,
  0x2d, 0xce, 0xb2, 0xbd, 0xa5, 0x57, 0xcd, 0xbd, 0x67, 0x50, 0x64, 0x3e,
  0x22, 0x27, 0x4a, 0xbe, 0xb8, 0x29, 0x91, 0xbc, 0x4b, 0x6a, 0xc9, 0xbc,
  0x67, 0x55, 0x94, 0x3e, 0x5c, 0x45, 0x95, 0x3d, 0xa8, 0x1b, 0x9c, 0xbd,
  0x7d, 0x10, 0x1e, 0x3e, 0xa1, 0x2c, 0x51, 0xbe, 0xcf, 0x5f, 0xdc, 0x3d,
  0x84, 0x28, 0x28, 0xbe, 0x79, 0x8f, 0x2f, 0xbd, 0xc0, 0x6d, 0xf6, 0xbc,
  0x14, 0x8b, 0xe7, 0xbc, 0x18, 0x51, 0xc5, 0xbe, 0xbc, 0x6f, 0xc4, 0xbe,
  0x58, 0x61, 0xb5, 0x3d, 0x63, 0xe1, 0x48, 0x3e, 0x20, 0x8f, 0xb7, 0x3e,
  0x14, 0x43, 0x0a, 0xbe, 0x6f, 0xb7, 0x96, 0xbd, 0x4c, 0x8e, 0x58, 0x3e,
  0xff, 0xb6, 0x3c, 0xbe, 0xdd, 0x34, 0x3a, 0x3d, 0x00, 0xa2, 0xe1, 0x3c,
  0x4f, 0x73, 0x88, 0xbd, 0xb5, 0x2b, 0xd6, 0xbc, 0xf2, 0x83, 0x1a, 0x3d,
  0x67, 0x3d, 0xd4, 0xbd, 0xed, 0x17, 0xe9, 0x3d, 0x15, 0x05, 0x42, 0xbd,
  0x67, 0x95, 0xd5, 0xbd, 0x89, 0xc9, 0x49, 0xbd, 0x86, 0x19, 0x14, 0x3d,
  0xdb, 0xaf, 0x8c, 0x3e, 0x78, 0xcd, 0x84, 0x3e, 0x38, 0x76, 0x43, 0x3e,
  0x5b, 0xca, 0x2c, 0x3e, 0xb7, 0x7c, 0x85, 0x3e, 0xe0, 0xe4, 0xb0, 0x3e,
  0x35, 0x82, 0x48, 0xbe, 0xfe, 0x2d, 0x81, 0xbe, 0x72, 0x12, 0xb5, 0x3e,
  0x34, 0x77, 0xbc, 0x3e, 0xce, 0xca, 0x65, 0x3e, 0xf8, 0x1c, 0x62, 0x3d,
  0xd4, 0x88, 0x01, 0xbe, 0xdb, 0xf0, 0x9f, 0xbd, 0xdc, 0x67, 0xc1, 0xbd,
  0xc8, 0x1e, 0x8c, 0xbd, 0x8c, 0x8a, 0x87, 0x3d, 0xb7, 0xdf, 0x9c, 0xbe,
  0x8a, 0x1c, 0x05, 0xbb, 0x8b, 0xf8, 0x5e, 0x3e, 0xfc, 0xfb, 0xf2, 0xbd,
  0x6d, 0xcf, 0x91, 0xbe, 0x38, 0x62, 0x01, 0x3e, 0x05, 0xee, 0x70, 0xbe,
  0x21, 0x55, 0x67, 0x3e, 0xf3, 0x17, 0x99, 0x3e, 0x85, 0xb2, 0x94, 0xbe,
  0xc4, 0x6b, 0xdd, 0xbd, 0x58, 0xc3, 0x00, 0xbd, 0xf0, 0xb3, 0x8f, 0x3e,
  0x96, 0xd3, 0x30, 0x3e, 0xb7, 0x4e, 0x91, 0xbe, 0x2a, 0xcd, 0x1b, 0xbe,
  0x78, 0x30, 0x4a, 0x3c, 0x37, 0x27, 0x8c, 0x3e, 0x46, 0x99, 0xaf, 0xbc,
  0x6f, 0x2e, 0x21, 0xbe, 0x49, 0x69, 0x83, 0xbc, 0x01, 0x4e, 0x72, 0xbe,
  0x79, 0xb4, 0x6d, 0xbe, 0xff, 0xf5, 0x39, 0x3e, 0x55, 0x58, 0xa6, 0xbc,
  0x42, 0x31, 0x3d, 0x3e, 0x85, 0xac, 0x80, 0x3e, 0xb7, 0xcd, 0xb9, 0xbd,
  0xbf, 0xc1, 0x24, 0x3e, 0x39, 0x02, 0x90, 0x3e, 0x80, 0xd5, 0x8b, 0xbe,
  0xc4, 0xe2, 0x73, 0xbd, 0xbd, 0x9a, 0x33, 0x3e, 0xb0, 0xbe, 0xe5, 0xbd,
  0x43, 0x37, 0xd4, 0x3d, 0x15, 0xf8, 0xc3, 0xbd, 0x3d, 0x5f, 0xd8, 0x3b,
  0x34, 0x72, 0x3d, 0xbd, 0x22, 0xde, 0x5a, 0x3e, 0xe9, 0x47, 0x8a, 0x3e,
  0xc2, 0x00, 0xf8, 0x3b, 0x30, 0xb3, 0x20, 0xbe, 0xfc, 0xb5, 0x45, 0xbe,
  0xff, 0x27, 0x9e, 0x3e, 0x9d, 0xf1, 0xc2, 0x3c, 0xc4, 0x26, 0xa3, 0xbd,
  0x11, 0x4a, 0xf9, 0xbd, 0xe1, 0x6e, 0x4e, 0xbe, 0xff, 0x83, 0xa5, 0x3e,
  0x07, 0x11, 0x1f, 0x3e, 0xa4, 0x28, 0x97, 0x3e, 0x84, 0xaa, 0x46, 0x3e,
  0x96, 0x55, 0x1a, 0x3e, 0xf1, 0x46, 0xf9, 0xbd, 0xa7, 0x93, 0x25, 0xbe,
  0xcc, 0x4f, 0x7d, 0xbe, 0xd1, 0x33, 0x9e, 0xbd, 0x7a, 0xe8, 0x44, 0xbe,
  0x0e, 0x29, 0x63, 0x3d, 0x40, 0x7b, 0x47, 0xbe, 0x53, 0x2f, 0xd7, 0x3d,
  0xea, 0x9a, 0xe3, 0xbd, 0xab, 0x8a, 0x87, 0x3e, 0xf4, 0xf8, 0xff, 0xff,
  0xf8, 0xf8, 0xff, 0xff, 0x0f, 0x00, 0x00, 0x00, 0x4d, 0x4c, 0x49, 0x52,
  0x20, 0x43, 0x6f, 0x6e, 0x76, 0x65, 0x72, 0x74, 0x65, 0x64, 0x2e, 0x00,
  0x01, 0x00, 0x00, 0x00, 0x14, 0x00, 0x00, 0x00, 0x00, 0x00, 0x0e, 0x00,
  0x18, 0x00, 0x14, 0x00, 0x10, 0x00, 0x0c, 0x00, 0x08, 0x00, 0x04, 0x00,
  0x0e, 0x00, 0x00, 0x00, 0x14, 0x00, 0x00, 0x00, 0x1c, 0x00, 0x00, 0x00,
  0x14, 0x01, 0x00, 0x00, 0x18, 0x01, 0x00, 0x00, 0x1c, 0x01, 0x00, 0x00,
  0x04, 0x00, 0x00, 0x00, 0x6d, 0x61, 0x69, 0x6e, 0x00, 0x00, 0x00, 0x00,
  0x04, 0x00, 0x00, 0x00, 0xbc, 0x00, 0x00, 0x00, 0x68, 0x00, 0x00, 0x00,
  0x34, 0x00, 0x00, 0x00, 0x10, 0x00, 0x00, 0x00, 0x00, 0x00, 0x0a, 0x00,
  0x10, 0x00, 0x0c, 0x00, 0x08, 0x00, 0x04, 0x00, 0x0a, 0x00, 0x00, 0x00,
  0x0c, 0x00, 0x00, 0x00, 0x10, 0x00, 0x00, 0x00, 0x01, 0x00, 0x00, 0x00,
  0x01, 0x00, 0x00, 0x00, 0x0a, 0x00, 0x00, 0x00, 0x01, 0x00, 0x00, 0x00,
  0x09, 0x00, 0x00, 0x00, 0x8e, 0xff, 0xff, 0xff, 0x10, 0x00, 0x00, 0x00,
  0x00, 0x00, 0x00, 0x08, 0x0c, 0x00, 0x00, 0x00, 0x10, 0x00, 0x00, 0x00,
  0xa0, 0xf9, 0xff, 0xff, 0x01, 0x00, 0x00, 0x00, 0x09, 0x00, 0x00, 0x00,
  0x03, 0x00, 0x00, 0x00, 0x08, 0x00, 0x00, 0x00, 0x05, 0x00, 0x00, 0x00,
  0x04, 0x00, 0x00, 0x00, 0xbe, 0xff, 0xff, 0xff, 0x1c, 0x00, 0x00, 0x00,
  0x00, 0x00, 0x00, 0x08, 0x1c, 0x00, 0x00, 0x00, 0x20, 0x00, 0x00, 0x00,
  0x0c, 0x00, 0x08, 0x00, 0x07, 0x00, 0x00, 0x00, 0x00, 0x00, 0x06, 0x00,
  0x0c, 0x00, 0x00, 0x00, 0x00, 0x00, 0x01, 0x01, 0x01, 0x00, 0x00, 0x00,
  0x08, 0x00, 0x00, 0x00, 0x03, 0x00, 0x00, 0x00, 0x07, 0x00, 0x00, 0x00,
  0x06, 0x00, 0x00, 0x00, 0x03, 0x00, 0x00, 0x00, 0x00, 0x00, 0x0e, 0x00,
  0x16, 0x00, 0x00, 0x00, 0x10, 0x00, 0x0c, 0x00, 0x0b, 0x00, 0x04, 0x00,
  0x0e, 0x00, 0x00, 0x00, 0x18, 0x00, 0x00, 0x00, 0x00, 0x00, 0x00, 0x08,
  0x18, 0x00, 0x00, 0x00, 0x1c, 0x00, 0x00, 0x00, 0x00, 0x00, 0x06, 0x00,
  0x08, 0x00, 0x07, 0x00, 0x06, 0x00, 0x00, 0x00, 0x00, 0x00, 0x00, 0x01,
  0x01, 0x00, 0x00, 0x00, 0x07, 0x00, 0x00, 0x00, 0x03, 0x00, 0x00, 0x00,
  0x00, 0x00, 0x00, 0x00, 0x01, 0x00, 0x00, 0x00, 0x02, 0x00, 0x00, 0x00,
  0x01, 0x00, 0x00, 0x00, 0x0a, 0x00, 0x00, 0x00, 0x01, 0x00, 0x00, 0x00,
  0x00, 0x00, 0x00, 0x00, 0x0b, 0x00, 0x00, 0x00, 0x7c, 0x05, 0x00, 0x00,
  0x24, 0x05, 0x00, 0x00, 0xd0, 0x04, 0x00, 0x00, 0x94, 0x04, 0x00, 0x00,
  0x58, 0x04, 0x00, 0x00, 0x18, 0x04, 0x00, 0x00, 0x30, 0x02, 0x00, 0x00,
  0x7c, 0x01, 0x00, 0x00, 0xe0, 0x00, 0x00, 0x00, 0x60, 0x00, 0x00, 0x00,
  0x04, 0x00, 0x00, 0x00, 0xc6, 0xfa, 0xff, 0xff, 0x00, 0x00, 0x00, 0x01,
  0x14, 0x00, 0x00, 0x00, 0x1c, 0x00, 0x00, 0x00, 0x1c, 0x00, 0x00, 0x00,
  0x0b, 0x00, 0x00, 0x00, 0x34, 0x00, 0x00, 0x00, 0x02, 0x00, 0x00, 0x00,
  0xff, 0xff, 0xff, 0xff, 0x01, 0x00, 0x00, 0x00, 0xb0, 0xfa, 0xff, 0xff,
  0x1b, 0x00, 0x00, 0x00, 0x53, 0x74, 0x61, 0x74, 0x65, 0x66, 0x75, 0x6c,
  0x50, 0x61, 0x72, 0x74, 0x69, 0x74, 0x69, 0x6f, 0x6e, 0x65, 0x64, 0x43,
  0x61, 0x6c, 0x6c, 0x5f, 0x31, 0x3a, 0x30, 0x00, 0x02, 0x00, 0x00, 0x00,
  0x01, 0x00, 0x00, 0x00, 0x01, 0x00, 0x00, 0x00, 0x1e, 0xfb, 0xff, 0xff,
  0x00, 0x00, 0x00, 0x01, 0x14, 0x00, 0x00, 0x00, 0x1c, 0x00, 0x00, 0x00,
  0x1c, 0x00, 0x00, 0x00, 0x0a, 0x00, 0x00, 0x00, 0x58, 0x00, 0x00, 0x00,
  0x02, 0x00, 0x00, 0x00, 0xff, 0xff, 0xff, 0xff, 0x01, 0x00, 0x00, 0x00,
  0x08, 0xfb, 0xff, 0xff, 0x3c, 0x00, 0x00, 0x00, 0x73, 0x65, 0x71, 0x75,
  0x65, 0x6e, 0x74, 0x69, 0x61, 0x6c, 0x5f, 0x32, 0x5f, 0x31, 0x2f, 0x64,
  0x65, 0x6e, 0x73, 0x65, 0x5f, 0x38, 0x5f, 0x31, 0x2f, 0x4d, 0x61, 0x74,
  0x4d, 0x75, 0x6c, 0x3b, 0x73, 0x65, 0x71, 0x75, 0x65, 0x6e, 0x74, 0x69,
  0x61, 0x6c, 0x5f, 0x32, 0x5f, 0x31, 0x2f, 0x64, 0x65, 0x6e, 0x73, 0x65,
  0x5f, 0x38, 0x5f, 0x31, 0x2f, 0x41, 0x64, 0x64, 0x00, 0x00, 0x00, 0x00,
  0x02, 0x00, 0x00, 0x00, 0x01, 0x00, 0x00, 0x00, 0x01, 0x00, 0x00, 0x00,
  0x9a, 0xfb, 0xff, 0xff, 0x00, 0x00, 0x00, 0x01, 0x14, 0x00, 0x00, 0x00,
  0x1c, 0x00, 0x00, 0x00, 0x1c, 0x00, 0x00, 0x00, 0x09, 0x00, 0x00, 0x00,
  0x74, 0x00, 0x00, 0x00, 0x02, 0x00, 0x00, 0x00, 0xff, 0xff, 0xff, 0xff,
  0x20, 0x00, 0x00, 0x00, 0x84, 0xfb, 0xff, 0xff, 0x5a, 0x00, 0x00, 0x00,
  0x73, 0x65, 0x71, 0x75, 0x65, 0x6e, 0x74, 0x69, 0x61, 0x6c, 0x5f, 0x32,
  0x5f, 0x31, 0x2f, 0x64, 0x65, 0x6e, 0x73, 0x65, 0x5f, 0x37, 0x5f, 0x31,
  0x2f, 0x4d, 0x61, 0x74, 0x4d, 0x75, 0x6c, 0x3b, 0x73, 0x65, 0x71, 0x75,
  0x65, 0x6e, 0x74, 0x69, 0x61, 0x6c, 0x5f, 0x32, 0x5f, 0x31, 0x2f, 0x64,
  0x65, 0x6e, 0x73, 0x65, 0x5f, 0x37, 0x5f, 0x31, 0x2f, 0x52, 0x65, 0x6c,
  0x75, 0x3b, 0x73, 0x65, 0x71, 0x75, 0x65, 0x6e, 0x74, 0x69, 0x61, 0x6c,
  0x5f, 0x32, 0x5f, 0x31, 0x2f, 0x64, 0x65, 0x6e, 0x73, 0x65, 0x5f, 0x37,
  0x5f, 0x31, 0x2f, 0x41, 0x64, 0x64, 0x00, 0x00, 0x02, 0x00, 0x00, 0x00,
  0x01, 0x00, 0x00, 0x00, 0x20, 0x00, 0x00, 0x00, 0x32, 0xfc, 0xff, 0xff,
  0x00, 0x00, 0x00, 0x01, 0x14, 0x00, 0x00, 0x00, 0x1c, 0x00, 0x00, 0x00,
  0x1c, 0x00, 0x00, 0x00, 0x08, 0x00, 0x00, 0x00, 0x74, 0x00, 0x00, 0x00,
  0x02, 0x00, 0x00, 0x00, 0xff, 0xff, 0xff, 0xff, 0x40, 0x00, 0x00, 0x00,
  0x1c, 0xfc, 0xff, 0xff, 0x5a, 0x00, 0x00, 0x00, 0x73, 0x65, 0x71, 0x75,
  0x65, 0x6e, 0x74, 0x69, 0x61, 0x6c, 0x5f, 0x32, 0x5f, 0x31, 0x2f, 0x64,
  0x65, 0x6e, 0x73, 0x65, 0x5f, 0x36, 0x5f, 0x31, 0x2f, 0x4d, 0x61, 0x74,
  0x4d, 0x75, 0x6c, 0x3b, 0x73, 0x65, 0x71, 0x75, 0x65, 0x6e, 0x74, 0x69,
  0x61, 0x6c, 0x5f, 0x32, 0x5f, 0x31, 0x2f, 0x64, 0x65, 0x6e, 0x73, 0x65,
  0x5f, 0x36, 0x5f, 0x31, 0x2f, 0x52, 0x65, 0x6c, 0x75, 0x3b, 0x73, 0x65,
  0x71, 0x75, 0x65, 0x6e, 0x74, 0x69, 0x61, 0x6c, 0x5f, 0x32, 0x5f, 0x31,
  0x2f, 0x64, 0x65, 0x6e, 0x73, 0x65, 0x5f, 0x36, 0x5f, 0x31, 0x2f, 0x41,
  0x64, 0x64, 0x00, 0x00, 0x02, 0x00, 0x00, 0x00, 0x01, 0x00, 0x00, 0x00,
  0x40, 0x00, 0x00, 0x00, 0x00, 0x00, 0x16, 0x00, 0x1c, 0x00, 0x18, 0x00,
  0x17, 0x00, 0x10, 0x00, 0x0c, 0x00, 0x08, 0x00, 0x00, 0x00, 0x00, 0x00,
  0x00, 0x00, 0x07, 0x00, 0x16, 0x00, 0x00, 0x00, 0x00, 0x00, 0x00, 0x01,
  0x20, 0x00, 0x00, 0x00, 0xb4, 0x01, 0x00, 0x00, 0x07, 0x00, 0x00, 0x00,
  0x00, 0x00, 0x00, 0x09, 0xc0, 0x01, 0x00, 0x00, 0x0c, 0x00, 0x0c, 0x00,
  0x00, 0x00, 0x00, 0x00, 0x08, 0x00, 0x04, 0x00, 0x0c, 0x00, 0x00, 0x00,
  0x08, 0x00, 0x00, 0x00, 0x0c, 0x01, 0x00, 0x00, 0x20, 0x00, 0x00, 0x00,
  0x00, 0x00, 0x00, 0x00, 0x00, 0x00, 0x00, 0x00, 0x00, 0x00, 0x00, 0x00,
  0x00, 0x00, 0x00, 0x00, 0x00, 0x00, 0x00, 0x00, 0x00, 0x00, 0x00, 0x00,
  0x00, 0x00, 0x00, 0x00, 0x00, 0x00, 0x00, 0x00, 0x00, 0x00, 0x00, 0x00,
  0x00, 0x00, 0x00, 0x00, 0x00, 0x00, 0x00, 0x00, 0x00, 0x00, 0x00, 0x00,
  0x00, 0x00, 0x00, 0x00, 0x00, 0x00, 0x00, 0x00, 0x00, 0x00, 0x00, 0x00,
  0x00, 0x00, 0x00, 0x00, 0x00, 0x00, 0x00, 0x00, 0x00, 0x00, 0x00, 0x00,
  0x00, 0x00, 0x00, 0x00, 0x00, 0x00, 0x00, 0x00, 0x00, 0x00, 0x00, 0x00,
  0x00, 0x00, 0x00, 0x00, 0x00, 0x00, 0x00, 0x00, 0x00, 0x00, 0x00, 0x00,
  0x00, 0x00, 0x00, 0x00, 0x00, 0x00, 0x00, 0x00, 0x00, 0x00, 0x00, 0x00,
  0x00, 0x00, 0x00, 0x00, 0x00, 0x00, 0x00, 0x00, 0x00, 0x00, 0x00, 0x00,
  0x00, 0x00, 0x00, 0x00, 0x00, 0x00, 0x00, 0x00, 0x00, 0x00, 0x00, 0x00,
  0x00, 0x00, 0x00, 0x00, 0x00, 0x00, 0x00, 0x00, 0x00, 0x00, 0x00, 0x00,
  0x00, 0x00, 0x00, 0x00, 0x00, 0x00, 0x00, 0x00, 0x00, 0x00, 0x00, 0x00,
  0x00, 0x00, 0x00, 0x00, 0x00, 0x00, 0x00, 0x00, 0x00, 0x00, 0x00, 0x00,
  0x00, 0x00, 0x00, 0x00, 0x00, 0x00, 0x00, 0x00, 0x00, 0x00, 0x00, 0x00,
  0x00, 0x00, 0x00, 0x00, 0x00, 0x00, 0x00, 0x00, 0x00, 0x00, 0x00, 0x00,
  0x00, 0x00, 0x00, 0x00, 0x00, 0x00, 0x00, 0x00, 0x00, 0x00, 0x00, 0x00,
  0x00, 0x00, 0x00, 0x00, 0x00, 0x00, 0x00, 0x00, 0x00, 0x00, 0x00, 0x00,
  0x00, 0x00, 0x00, 0x00, 0x00, 0x00, 0x00, 0x00, 0x00, 0x00, 0x00, 0x00,
  0x00, 0x00, 0x00, 0x00, 0x00, 0x00, 0x00, 0x00, 0x00, 0x00, 0x00, 0x00,
  0x00, 0x00, 0x00, 0x00, 0x00, 0x00, 0x00, 0x00, 0x00, 0x00, 0x00, 0x00,
  0x00, 0x00, 0x00, 0x00, 0x00, 0x00, 0x00, 0x00, 0x20, 0x00, 0x00, 0x00,
  0xa2, 0xd5, 0x53, 0x3b, 0x92, 0x5e, 0x7b, 0x3b, 0x70, 0x9c, 0x35, 0x3b,
  0x6c, 0xf0, 0x3f, 0x3b, 0x81, 0xc8, 0x4e, 0x3b, 0x6d, 0x9e, 0x2d, 0x3b,
  0x18, 0x59, 0x03, 0x3b, 0xf2, 0x77, 0x45, 0x3b, 0xb9, 0x4d, 0x2f, 0x3b,
  0xac, 0xc0, 0x2f, 0x3b, 0xd1, 0x8c, 0x8f, 0x3b, 0xe2, 0x0c, 0x5d, 0x3b,
  0x19, 0xcd, 0x49, 0x3b, 0x77, 0x90, 0x0b, 0x3b, 0xc4, 0x89, 0x54, 0x3b,
  0x09, 0xdf, 0x69, 0x3b, 0x39, 0xd5, 0x41, 0x3b, 0x6c, 0xff, 0x40, 0x3b,
  0x79, 0x7c, 0x64, 0x3b, 0xa5, 0x90, 0xff, 0x3a, 0x3f, 0x7c, 0x45, 0x3b,
  0xd0, 0x6e, 0x30, 0x3b, 0x9b, 0xe6, 0x87, 0x3b, 0x1e, 0x3b, 0x2a, 0x3b,
  0x96, 0x5e, 0x37, 0x3b, 0xdc, 0xf7, 0x0f, 0x3b, 0xe5, 0x3b, 0x29, 0x3b,
  0xee, 0xf5, 0x32, 0x3b, 0x54, 0x4c, 0x25, 0x3b, 0x41, 0x47, 0x74, 0x3b,
  0xd3, 0x7e, 0x53, 0x3b, 0x1c, 0xf0, 0x69, 0x3b, 0x11, 0x00, 0x00, 0x00,
  0x74, 0x66, 0x6c, 0x2e, 0x70, 0x73, 0x65, 0x75, 0x64, 0x6f, 0x5f, 0x71,
  0x63, 0x6f, 0x6e, 0x73, 0x74, 0x00, 0x00, 0x00, 0x02, 0x00, 0x00, 0x00,
  0x20, 0x00, 0x00, 0x00, 0x40, 0x00, 0x00, 0x00, 0x1a, 0xff, 0xff, 0xff,
  0x00, 0x00, 0x00, 0x01, 0x10, 0x00, 0x00, 0x00, 0x10, 0x00, 0x00, 0x00,
  0x06, 0x00, 0x00, 0x00, 0x1c, 0x00, 0x00, 0x00, 0xa0, 0xfe, 0xff, 0xff,
  0x0f, 0x00, 0x00, 0x00, 0x61, 0x72, 0x69, 0x74, 0x68, 0x2e, 0x63, 0x6f,
  0x6e, 0x73, 0x74, 0x61, 0x6e, 0x74, 0x34, 0x00, 0x02, 0x00, 0x00, 0x00,
  0x01, 0x00, 0x00, 0x00, 0x20, 0x00, 0x00, 0x00, 0x56, 0xff, 0xff, 0xff,
  0x00, 0x00, 0x00, 0x01, 0x10, 0x00, 0x00, 0x00, 0x10, 0x00, 0x00, 0x00,
  0x05, 0x00, 0x00, 0x00, 0x1c, 0x00, 0x00, 0x00, 0xdc, 0xfe, 0xff, 0xff,
  0x0f, 0x00, 0x00, 0x00, 0x61, 0x72, 0x69, 0x74, 0x68, 0x2e, 0x63, 0x6f,
  0x6e, 0x73, 0x74, 0x61, 0x6e, 0x74, 0x33, 0x00, 0x01, 0x00, 0x00, 0x00,
  0x01, 0x00, 0x00, 0x00, 0x8e, 0xff, 0xff, 0xff, 0x00, 0x00, 0x00, 0x01,
  0x10, 0x00, 0x00, 0x00, 0x10, 0x00, 0x00, 0x00, 0x04, 0x00, 0x00, 0x00,
  0x1c, 0x00, 0x00, 0x00, 0x14, 0xff, 0xff, 0xff, 0x0f, 0x00, 0x00, 0x00,
  0x61, 0x72, 0x69, 0x74, 0x68, 0x2e, 0x63, 0x6f, 0x6e, 0x73, 0x74, 0x61,
  0x6e, 0x74, 0x32, 0x00, 0x01, 0x00, 0x00, 0x00, 0x20, 0x00, 0x00, 0x00,
  0xc6, 0xff, 0xff, 0xff, 0x00, 0x00, 0x00, 0x01, 0x10, 0x00, 0x00, 0x00,
  0x10, 0x00, 0x00, 0x00, 0x03, 0x00, 0x00, 0x00, 0x1c, 0x00, 0x00, 0x00,
  0x4c, 0xff, 0xff, 0xff, 0x0f, 0x00, 0x00, 0x00, 0x61, 0x72, 0x69, 0x74,
  0x68, 0x2e, 0x63, 0x6f, 0x6e, 0x73, 0x74, 0x61, 0x6e, 0x74, 0x31, 0x00,
  0x01, 0x00, 0x00, 0x00, 0x40, 0x00, 0x00, 0x00, 0x00, 0x00, 0x16, 0x00,
  0x18, 0x00, 0x14, 0x00, 0x00, 0x00, 0x10, 0x00, 0x0c, 0x00, 0x08, 0x00,
  0x00, 0x00, 0x00, 0x00, 0x00, 0x00, 0x07, 0x00, 0x16, 0x00, 0x00, 0x00,
  0x00, 0x00, 0x00, 0x01, 0x10, 0x00, 0x00, 0x00, 0x10, 0x00, 0x00, 0x00,
  0x02, 0x00, 0x00, 0x00, 0x1c, 0x00, 0x00, 0x00, 0x9c, 0xff, 0xff, 0xff,
  0x0e, 0x00, 0x00, 0x00, 0x61, 0x72, 0x69, 0x74, 0x68, 0x2e, 0x63, 0x6f,
  0x6e, 0x73, 0x74, 0x61, 0x6e, 0x74, 0x00, 0x00, 0x02, 0x00, 0x00, 0x00,
  0x40, 0x00, 0x00, 0x00, 0x0c, 0x00, 0x00, 0x00, 0x00, 0x00, 0x16, 0x00,
  0x1c, 0x00, 0x18, 0x00, 0x00, 0x00, 0x14, 0x00, 0x10, 0x00, 0x0c, 0x00,
  0x00, 0x00, 0x00, 0x00, 0x08, 0x00, 0x07, 0x00, 0x16, 0x00, 0x00, 0x00,
  0x00, 0x00, 0x00, 0x01, 0x14, 0x00, 0x00, 0x00, 0x20, 0x00, 0x00, 0x00,
  0x20, 0x00, 0x00, 0x00, 0x01, 0x00, 0x00, 0x00, 0x40, 0x00, 0x00, 0x00,
  0x02, 0x00, 0x00, 0x00, 0xff, 0xff, 0xff, 0xff, 0x0c, 0x00, 0x00, 0x00,
  0x04, 0x00, 0x04, 0x00, 0x04, 0x00, 0x00, 0x00, 0x21, 0x00, 0x00, 0x00,
  0x73, 0x65, 0x72, 0x76, 0x69, 0x6e, 0x67, 0x5f, 0x64, 0x65, 0x66, 0x61,
  0x75, 0x6c, 0x74, 0x5f, 0x6b, 0x65, 0x72, 0x61, 0x73, 0x5f, 0x74, 0x65,
  0x6e, 0x73, 0x6f, 0x72, 0x5f, 0x31, 0x34, 0x3a, 0x30, 0x00, 0x00, 0x00,
  0x02, 0x00, 0x00, 0x00, 0x01, 0x00, 0x00, 0x00, 0x0c, 0x00, 0x00, 0x00,
  0x02, 0x00, 0x00, 0x00, 0x2c, 0x00, 0x00, 0x00, 0x10, 0x00, 0x00, 0x00,
  0x0c, 0x00, 0x0c, 0x00, 0x0b, 0x00, 0x00, 0x00, 0x00, 0x00, 0x04, 0x00,
  0x0c, 0x00, 0x00, 0x00, 0x0e, 0x00, 0x00, 0x00, 0x00, 0x00, 0x00, 0x0e,
  0x0c, 0x00, 0x10, 0x00, 0x0f, 0x00, 0x00, 0x00, 0x08, 0x00, 0x04, 0x00,
  0x0c, 0x00, 0x00, 0x00, 0x09, 0x00, 0x00, 0x00, 0x0c, 0x00, 0x00, 0x00,
  0x00, 0x00, 0x00, 0x09
};
unsigned int quantized_model_tflite_len = 8128;
