/* Copyright 2023 The TensorFlow Authors. All Rights Reserved.

Licensed under the Apache License, Version 2.0 (the "License");
you may not use this file except in compliance with the License.
You may obtain a copy of the License at

    http://www.apache.org/licenses/LICENSE-2.0

Unless required by applicable law or agreed to in writing, software
distributed under the License is distributed on an "AS IS" BASIS,
WITHOUT WARRANTIES OR CONDITIONS OF ANY KIND, either express or implied.
See the License for the specific language governing permissions and
limitations under the License.
==============================================================================*/

// Automatically created from a TensorFlow Lite flatbuffer using the command:
// xxd -i model.tflite > model.cc

// This is a standard TensorFlow Lite model file that has been converted into a
// C data array, so it can be easily compiled into a binary for devices that
// don't have a file system, such as most Arduino boards.


// The array g_model must be aligned to 16 bytes to be compatible 
// with CMSIS (Cortex Microcontroller Software Interface Standard). 
// alignas(16) directive is used to specify that the g_model array 
// should be stored in memory at an address that is a multiple of 16.
unsigned char model_brix_tflite[] = {
  0x1c, 0x00, 0x00, 0x00, 0x54, 0x46, 0x4c, 0x33, 0x14, 0x00, 0x20, 0x00,
  0x1c, 0x00, 0x18, 0x00, 0x14, 0x00, 0x10, 0x00, 0x0c, 0x00, 0x00, 0x00,
  0x08, 0x00, 0x04, 0x00, 0x14, 0x00, 0x00, 0x00, 0x1c, 0x00, 0x00, 0x00,
  0x98, 0x00, 0x00, 0x00, 0xf0, 0x00, 0x00, 0x00, 0x14, 0x11, 0x00, 0x00,
  0x24, 0x11, 0x00, 0x00, 0xf8, 0x15, 0x00, 0x00, 0x03, 0x00, 0x00, 0x00,
  0x01, 0x00, 0x00, 0x00, 0x10, 0x00, 0x00, 0x00, 0x00, 0x00, 0x0a, 0x00,
  0x10, 0x00, 0x0c, 0x00, 0x08, 0x00, 0x04, 0x00, 0x0a, 0x00, 0x00, 0x00,
  0x0c, 0x00, 0x00, 0x00, 0x1c, 0x00, 0x00, 0x00, 0x3c, 0x00, 0x00, 0x00,
  0x0f, 0x00, 0x00, 0x00, 0x73, 0x65, 0x72, 0x76, 0x69, 0x6e, 0x67, 0x5f,
  0x64, 0x65, 0x66, 0x61, 0x75, 0x6c, 0x74, 0x00, 0x01, 0x00, 0x00, 0x00,
  0x04, 0x00, 0x00, 0x00, 0x90, 0xff, 0xff, 0xff, 0x09, 0x00, 0x00, 0x00,
  0x04, 0x00, 0x00, 0x00, 0x08, 0x00, 0x00, 0x00, 0x6f, 0x75, 0x74, 0x70,
  0x75, 0x74, 0x5f, 0x30, 0x00, 0x00, 0x00, 0x00, 0x01, 0x00, 0x00, 0x00,
  0x04, 0x00, 0x00, 0x00, 0xba, 0xef, 0xff, 0xff, 0x04, 0x00, 0x00, 0x00,
  0x0d, 0x00, 0x00, 0x00, 0x69, 0x6e, 0x70, 0x75, 0x74, 0x5f, 0x6c, 0x61,
  0x79, 0x65, 0x72, 0x5f, 0x31, 0x00, 0x00, 0x00, 0x02, 0x00, 0x00, 0x00,
  0x34, 0x00, 0x00, 0x00, 0x04, 0x00, 0x00, 0x00, 0xdc, 0xff, 0xff, 0xff,
  0x0c, 0x00, 0x00, 0x00, 0x04, 0x00, 0x00, 0x00, 0x13, 0x00, 0x00, 0x00,
  0x43, 0x4f, 0x4e, 0x56, 0x45, 0x52, 0x53, 0x49, 0x4f, 0x4e, 0x5f, 0x4d,
  0x45, 0x54, 0x41, 0x44, 0x41, 0x54, 0x41, 0x00, 0x08, 0x00, 0x0c, 0x00,
  0x08, 0x00, 0x04, 0x00, 0x08, 0x00, 0x00, 0x00, 0x0b, 0x00, 0x00, 0x00,
  0x04, 0x00, 0x00, 0x00, 0x13, 0x00, 0x00, 0x00, 0x6d, 0x69, 0x6e, 0x5f,
  0x72, 0x75, 0x6e, 0x74, 0x69, 0x6d, 0x65, 0x5f, 0x76, 0x65, 0x72, 0x73,
  0x69, 0x6f, 0x6e, 0x00, 0x0d, 0x00, 0x00, 0x00, 0x20, 0x10, 0x00, 0x00,
  0x18, 0x10, 0x00, 0x00, 0xc8, 0x0f, 0x00, 0x00, 0xb0, 0x07, 0x00, 0x00,
  0x9c, 0x07, 0x00, 0x00, 0x4c, 0x07, 0x00, 0x00, 0xbc, 0x06, 0x00, 0x00,
  0xac, 0x00, 0x00, 0x00, 0xa4, 0x00, 0x00, 0x00, 0x9c, 0x00, 0x00, 0x00,
  0x94, 0x00, 0x00, 0x00, 0x74, 0x00, 0x00, 0x00, 0x04, 0x00, 0x00, 0x00,
  0x6a, 0xf0, 0xff, 0xff, 0x04, 0x00, 0x00, 0x00, 0x60, 0x00, 0x00, 0x00,
  0x10, 0x00, 0x00, 0x00, 0x00, 0x00, 0x00, 0x00, 0x08, 0x00, 0x0e, 0x00,
  0x08, 0x00, 0x04, 0x00, 0x08, 0x00, 0x00, 0x00, 0x10, 0x00, 0x00, 0x00,
  0x24, 0x00, 0x00, 0x00, 0x00, 0x00, 0x06, 0x00, 0x08, 0x00, 0x04, 0x00,
  0x06, 0x00, 0x00, 0x00, 0x04, 0x00, 0x00, 0x00, 0x00, 0x00, 0x00, 0x00,
  0x0c, 0x00, 0x18, 0x00, 0x14, 0x00, 0x10, 0x00, 0x0c, 0x00, 0x04, 0x00,
  0x0c, 0x00, 0x00, 0x00, 0x81, 0xb3, 0x47, 0xf9, 0xda, 0x88, 0x4f, 0x05,
  0x02, 0x00, 0x00, 0x00, 0x02, 0x00, 0x00, 0x00, 0x04, 0x00, 0x00, 0x00,
  0x06, 0x00, 0x00, 0x00, 0x32, 0x2e, 0x31, 0x37, 0x2e, 0x30, 0x00, 0x00,
  0xd6, 0xf0, 0xff, 0xff, 0x04, 0x00, 0x00, 0x00, 0x10, 0x00, 0x00, 0x00,
  0x31, 0x2e, 0x35, 0x2e, 0x30, 0x00, 0x00, 0x00, 0x00, 0x00, 0x00, 0x00,
  0x00, 0x00, 0x00, 0x00, 0xe4, 0xeb, 0xff, 0xff, 0xe8, 0xeb, 0xff, 0xff,
  0xec, 0xeb, 0xff, 0xff, 0xfe, 0xf0, 0xff, 0xff, 0x04, 0x00, 0x00, 0x00,
  0x00, 0x06, 0x00, 0x00, 0xa4, 0x24, 0x35, 0x3e, 0x54, 0x50, 0x91, 0x3e,
  0x46, 0x1c, 0x12, 0xbe, 0xd6, 0x19, 0x20, 0x3e, 0x5b, 0xc3, 0x47, 0xbe,
  0x1a, 0xcb, 0x20, 0xbd, 0x8c, 0x98, 0xa4, 0xbe, 0x59, 0x8d, 0x7d, 0x3e,
  0x72, 0xe1, 0xf7, 0x3d, 0x01, 0x9e, 0xb1, 0x3e, 0xd2, 0xe9, 0x2f, 0xbe,
  0xc8, 0xb0, 0xfa, 0xbd, 0xa2, 0xa2, 0x1d, 0x3d, 0x95, 0x44, 0xa6, 0x3e,
  0xfe, 0xd6, 0x13, 0x3e, 0x3d, 0xba, 0xc8, 0xbc, 0xe2, 0x23, 0xba, 0x3d,
  0x06, 0x07, 0x8b, 0xbe, 0xd9, 0xe0, 0x6a, 0x3c, 0x3c, 0xe3, 0x91, 0x3e,
  0x68, 0xdd, 0x93, 0xbe, 0xb2, 0x4d, 0x9a, 0x3d, 0x01, 0x8c, 0xa0, 0x3e,
  0x2d, 0x9d, 0x9f, 0x3c, 0x36, 0x43, 0x83, 0x3e, 0xb0, 0x59, 0x92, 0xbe,
  0x8c, 0xd1, 0x11, 0xbe, 0x59, 0xc1, 0x84, 0x3e, 0xb3, 0xe5, 0x91, 0x3e,
  0xee, 0xbd, 0x6e, 0x3e, 0x40, 0xf8, 0x1c, 0x3d, 0xbf, 0xef, 0xc2, 0xbe,
  0x3c, 0x01, 0x95, 0xbe, 0x37, 0x3f, 0xad, 0xbe, 0xbc, 0xa3, 0x90, 0xbd,
  0xd4, 0x3e, 0x68, 0x3e, 0x57, 0x07, 0x06, 0xbd, 0xbb, 0x65, 0x0a, 0xbe,
  0xa8, 0x68, 0x18, 0x3e, 0x5d, 0xf9, 0x1e, 0x3e, 0x09, 0x0c, 0x45, 0x3e,
  0x7d, 0x76, 0x8f, 0xbd, 0x57, 0x46, 0xf1, 0x3d, 0x05, 0xd1, 0x1a, 0xbd,
  0x49, 0xd6, 0x69, 0xbe, 0xed, 0x38, 0x50, 0x3c, 0xae, 0x34, 0xad, 0xbb,
  0xb2, 0x41, 0x36, 0xbe, 0x1b, 0xd0, 0x55, 0x3c, 0x88, 0xa3, 0x9c, 0xbd,
  0xe6, 0xef, 0x60, 0x3e, 0xff, 0x30, 0x2e, 0xbe, 0x51, 0x58, 0xc6, 0xbe,
  0x54, 0x69, 0xb0, 0xbe, 0x51, 0x8b, 0xa2, 0xbe, 0x4b, 0xa3, 0x28, 0x3e,
  0x5e, 0x2e, 0xaf, 0xbe, 0xe1, 0x5d, 0xd1, 0xbe, 0x1c, 0x39, 0x06, 0xbe,
  0x78, 0x06, 0x0f, 0xbe, 0xdb, 0xd1, 0x81, 0x3c, 0x02, 0x44, 0x38, 0x3e,
  0xd7, 0x08, 0xa7, 0x3d, 0xd7, 0x87, 0x1c, 0x3d, 0xc4, 0x63, 0xa1, 0xbe,
  0x2f, 0xd3, 0x31, 0xbe, 0xd3, 0x6a, 0x13, 0xbe, 0xd3, 0x72, 0x8f, 0x3e,
  0x29, 0x54, 0xa9, 0x3e, 0xae, 0xe7, 0xd4, 0xbd, 0x34, 0xbe, 0x26, 0xbe,
  0x90, 0x78, 0x61, 0xbe, 0x20, 0xb7, 0x9c, 0xbc, 0x92, 0x18, 0xa0, 0xbe,
  0x63, 0x10, 0x7c, 0xbe, 0x26, 0x16, 0x94, 0x3d, 0xa7, 0xd2, 0xbc, 0xbe,
  0x7d, 0x81, 0x93, 0x3e, 0x92, 0x29, 0xac, 0x3e, 0xa9, 0x09, 0xae, 0xbe,
  0x27, 0xf8, 0x9e, 0x3d, 0x0c, 0x0c, 0xba, 0x3c, 0x19, 0x03, 0x78, 0xbe,
  0xa3, 0xcd, 0xad, 0x3e, 0xe2, 0x30, 0x32, 0x3e, 0x08, 0xe9, 0xaf, 0xbe,
  0xad, 0x59, 0x98, 0xbd, 0x78, 0xf4, 0x9e, 0xbe, 0x23, 0xce, 0x97, 0xbe,
  0x80, 0xfc, 0x2d, 0xbe, 0xf8, 0xeb, 0x58, 0xbe, 0x7c, 0xe4, 0x38, 0x3e,
  0x1c, 0x0c, 0x3d, 0xbe, 0x4d, 0xc9, 0x57, 0x3e, 0xa5, 0x96, 0xd8, 0x3a,
  0x04, 0x81, 0x2c, 0x3c, 0xeb, 0x6e, 0x4a, 0x3e, 0x3a, 0xad, 0x18, 0x3e,
  0xa0, 0x87, 0x46, 0x3e, 0xa8, 0xc5, 0x02, 0x3e, 0x1a, 0x48, 0xde, 0x3d,
  0x7e, 0x3f, 0x2a, 0x3e, 0xbe, 0xb6, 0x3e, 0x3e, 0x1a, 0x09, 0x13, 0x3d,
  0x03, 0x16, 0xb3, 0xbe, 0x6d, 0x37, 0x30, 0xbe, 0x4a, 0xb7, 0xbd, 0xbd,
  0x20, 0xe6, 0x07, 0x3e, 0xf9, 0xf9, 0x70, 0x3d, 0x23, 0x59, 0x80, 0x3e,
  0x6d, 0x7a, 0x6e, 0xbe, 0x10, 0x3c, 0x7e, 0x3e, 0x47, 0x33, 0x71, 0x3e,
  0x8a, 0xc1, 0xa6, 0xbc, 0x76, 0xf5, 0x2b, 0x3c, 0x88, 0xb6, 0xbc, 0xbd,
  0xdf, 0x65, 0x9e, 0xbe, 0x06, 0xfa, 0x62, 0x3e, 0x6d, 0x79, 0xb2, 0xbe,
  0xfa, 0xe8, 0x8f, 0x3e, 0x58, 0x21, 0xa7, 0x3e, 0x28, 0xdd, 0xbc, 0x3e,
  0x14, 0x9a, 0xa5, 0xbd, 0xed, 0x32, 0xb0, 0xbe, 0x06, 0x56, 0xd2, 0xbd,
  0xe2, 0x52, 0xf8, 0xbd, 0xf0, 0xfc, 0xce, 0xbd, 0x5a, 0xf7, 0xba, 0x3e,
  0x85, 0x33, 0xc5, 0x3e, 0x24, 0x55, 0x23, 0x3e, 0xe2, 0x52, 0x5a, 0xbd,
  0xbb, 0xdc, 0xe5, 0xbd, 0x5a, 0x06, 0xec, 0xbd, 0x4a, 0x0c, 0x59, 0xbe,
  0xc9, 0xe5, 0xc1, 0x3d, 0x37, 0x75, 0x5c, 0xbe, 0xbc, 0x65, 0xc0, 0xbe,
  0x4d, 0xb3, 0x38, 0x3e, 0xc6, 0x90, 0x3c, 0xbe, 0x83, 0xdf, 0xcf, 0x3d,
  0xc9, 0x6e, 0xe0, 0x3d, 0x2b, 0x23, 0x54, 0xbe, 0xe3, 0x19, 0xc5, 0xbe,
  0xf3, 0x15, 0x51, 0x3d, 0x76, 0xda, 0x2c, 0x3e, 0xa1, 0xff, 0x8a, 0x3d,
  0x5c, 0x33, 0xa4, 0xbe, 0x4b, 0x47, 0xea, 0xbd, 0x78, 0xba, 0x85, 0xbe,
  0x69, 0xb4, 0x33, 0x3c, 0x25, 0x19, 0x8a, 0x3e, 0x82, 0x9d, 0xa9, 0xbb,
  0xbb, 0x9d, 0x37, 0x3e, 0x11, 0x50, 0x48, 0x3e, 0xb0, 0xd2, 0xa3, 0xbd,
  0xda, 0x8c, 0xa1, 0xbe, 0x0b, 0xf5, 0x7c, 0xbe, 0xae, 0xc3, 0xa3, 0x3e,
  0xdc, 0xb4, 0x57, 0x3e, 0x3a, 0x04, 0xa3, 0x3e, 0x68, 0xad, 0x4f, 0x3e,
  0x29, 0x08, 0x4d, 0xbe, 0xab, 0xae, 0xdd, 0x3d, 0x9d, 0x3b, 0xc9, 0xbd,
  0x24, 0xfa, 0x7c, 0xbe, 0x3a, 0x14, 0x35, 0xbc, 0x31, 0x56, 0x77, 0x3e,
  0xe4, 0xe7, 0x9a, 0xbe, 0x40, 0xd0, 0xb1, 0xbe, 0x6d, 0x3a, 0x38, 0xbe,
  0x1b, 0x91, 0x19, 0x3e, 0xee, 0x33, 0xb2, 0x3e, 0x0d, 0xf6, 0xb8, 0x3e,
  0x10, 0x10, 0x54, 0xbd, 0x2c, 0x17, 0x8c, 0xbd, 0x09, 0xbb, 0x42, 0x3e,
  0xf2, 0x2f, 0xbb, 0x3d, 0xd4, 0x91, 0xc2, 0x3e, 0x41, 0x47, 0x0c, 0xbe,
  0x6f, 0xd7, 0x43, 0xbe, 0x0f, 0xce, 0xc6, 0x3d, 0xca, 0x4f, 0x94, 0x3c,
  0xca, 0xf3, 0xa9, 0xbe, 0x8f, 0xe4, 0x67, 0xbe, 0xfd, 0x1a, 0x32, 0x3e,
  0x19, 0x86, 0x3e, 0xbb, 0x2b, 0x7b, 0x3e, 0x3d, 0x94, 0xcf, 0x48, 0x3e,
  0x95, 0xe3, 0x13, 0x3e, 0x02, 0xd3, 0xc2, 0x3d, 0x6f, 0xb9, 0x2a, 0x3d,
  0xf2, 0xe5, 0xca, 0xbe, 0xff, 0x59, 0xfc, 0x3d, 0xd4, 0xc7, 0xc5, 0x3e,
  0x3f, 0x00, 0x04, 0xbe, 0x20, 0x26, 0x8a, 0xbd, 0x2c, 0x0c, 0x0b, 0x3d,
  0x79, 0xaf, 0x67, 0x3d, 0xa1, 0x7e, 0x67, 0xbe, 0xc9, 0x9e, 0x03, 0x3e,
  0xc4, 0xe2, 0x6a, 0xbe, 0xd1, 0x8a, 0x9d, 0xbe, 0xc2, 0xc5, 0xc9, 0xbb,
  0x8e, 0x40, 0x9d, 0xbe, 0xdc, 0x15, 0x12, 0x3e, 0x23, 0x47, 0x6a, 0xbe,
  0x14, 0xbe, 0x60, 0xb9, 0x96, 0x14, 0xa8, 0xbe, 0x77, 0xa8, 0xa8, 0xbe,
  0x24, 0x2e, 0x8c, 0x3e, 0x44, 0x1e, 0x86, 0x3e, 0x4f, 0x7d, 0x05, 0xbe,
  0x45, 0x57, 0xc1, 0xbe, 0xf4, 0x83, 0xc6, 0xbe, 0x5c, 0x59, 0x31, 0xbe,
  0x44, 0x55, 0xa1, 0xbc, 0xa5, 0x59, 0xe4, 0x3d, 0x97, 0x0a, 0x99, 0x3d,
  0x38, 0x4b, 0x81, 0xbe, 0xa9, 0x9f, 0xfd, 0x3d, 0xe3, 0xb0, 0x85, 0x3e,
  0x9e, 0xf5, 0x4f, 0x3e, 0xee, 0xb6, 0x93, 0x3e, 0xf6, 0xe2, 0xd8, 0xbd,
  0x9a, 0xd5, 0x94, 0xbc, 0x0e, 0x70, 0x92, 0x3e, 0xb3, 0xaa, 0x01, 0xbe,
  0x7c, 0xd6, 0x9b, 0xbe, 0xa3, 0x22, 0x8c, 0xbd, 0x66, 0x47, 0x62, 0xbe,
  0xd1, 0x5e, 0x93, 0x3d, 0x27, 0x6e, 0xc3, 0xbe, 0x33, 0xdb, 0x40, 0xbe,
  0x68, 0x84, 0x8b, 0xbe, 0x31, 0xd2, 0xa9, 0x3e, 0x24, 0xbe, 0x70, 0x3e,
  0xa4, 0x65, 0xbd, 0x3d, 0x47, 0x31, 0xa6, 0xbd, 0x80, 0x2d, 0x5e, 0xbe,
  0xbb, 0xfd, 0x0c, 0xbd, 0x19, 0xfe, 0x6c, 0xbd, 0x5f, 0xa8, 0xaf, 0xbe,
  0x63, 0x1a, 0x8d, 0xbe, 0x35, 0xfd, 0x3d, 0x3e, 0x0e, 0xba, 0x9b, 0xbc,
  0xfd, 0xf0, 0x13, 0xbe, 0x1b, 0x79, 0x0f, 0xbe, 0x8e, 0xe7, 0x65, 0x3e,
  0x8f, 0x20, 0xca, 0x3e, 0x63, 0x0a, 0x43, 0xbe, 0x41, 0x74, 0x92, 0xbd,
  0x44, 0xdb, 0x97, 0xbe, 0xa0, 0xd5, 0x1f, 0x3e, 0xd0, 0xb9, 0x88, 0xbd,
  0x11, 0x88, 0x9e, 0x3e, 0x4d, 0x75, 0x68, 0x3e, 0x81, 0x02, 0x85, 0x3e,
  0x97, 0xc1, 0xea, 0xbd, 0xdc, 0xfe, 0x08, 0x3e, 0xb2, 0x5a, 0x50, 0xbe,
  0x0f, 0x0a, 0xce, 0xbd, 0xe6, 0xae, 0xa2, 0xbd, 0x7e, 0x90, 0x88, 0x3e,
  0x9a, 0xef, 0x97, 0xbe, 0x62, 0x07, 0xb2, 0x3c, 0x8e, 0xa5, 0x1f, 0x3d,
  0xf6, 0xa1, 0xc7, 0xbd, 0x07, 0x16, 0x59, 0xbd, 0xcb, 0x75, 0x10, 0xba,
  0x91, 0x55, 0x84, 0x3e, 0x9d, 0x2e, 0xb5, 0x3e, 0x91, 0xb3, 0x6a, 0x3e,
  0xf8, 0x36, 0x1e, 0x3e, 0x63, 0x1f, 0xde, 0xbc, 0xaa, 0xfb, 0x75, 0x3e,
  0x2a, 0x05, 0xae, 0x3e, 0x8b, 0xb0, 0x3d, 0x3d, 0x32, 0x68, 0x82, 0xbd,
  0xc6, 0xa8, 0xbf, 0x3c, 0xdc, 0x25, 0x5f, 0x3e, 0xf1, 0x04, 0x9d, 0xbe,
  0x5d, 0xca, 0x47, 0x3e, 0xed, 0x5a, 0x83, 0xbe, 0x91, 0x0f, 0x8e, 0x3e,
  0xdd, 0xba, 0x64, 0x3d, 0x9d, 0x15, 0x80, 0xbe, 0xf2, 0x73, 0x7f, 0xbe,
  0xb2, 0xf7, 0x1c, 0x3d, 0xbd, 0xb6, 0x56, 0xbe, 0x1c, 0x5f, 0x78, 0xbe,
  0x5f, 0xe9, 0x29, 0xbd, 0x06, 0x20, 0xe7, 0x3d, 0x19, 0xd1, 0xf0, 0xbd,
  0xfb, 0xff, 0x1d, 0x3e, 0x84, 0x3c, 0x5c, 0x3e, 0xae, 0x1a, 0x0a, 0xbe,
  0x7d, 0xb9, 0x07, 0xbe, 0xb7, 0x96, 0xae, 0x3e, 0xc2, 0xc5, 0xde, 0x3d,
  0xc4, 0x80, 0xc0, 0xbe, 0x39, 0x33, 0x82, 0x3e, 0xa8, 0x96, 0x82, 0x3e,
  0x5a, 0xda, 0x92, 0x3d, 0x8f, 0xf1, 0x81, 0x3e, 0x30, 0x10, 0xa5, 0xbe,
  0xf3, 0xa5, 0x58, 0x3e, 0xb8, 0xc0, 0x94, 0x3e, 0xde, 0xb7, 0xeb, 0x3c,
  0x6c, 0xac, 0xc2, 0x3e, 0x10, 0x59, 0x80, 0x3e, 0x2e, 0x9b, 0xa0, 0x3e,
  0x8b, 0x87, 0x7b, 0xbe, 0x99, 0xaa, 0x49, 0xbe, 0xe8, 0x32, 0x82, 0x3d,
  0xb0, 0xa7, 0x79, 0xbe, 0x63, 0x19, 0xa6, 0x3e, 0x21, 0x36, 0x08, 0xbe,
  0x92, 0xde, 0x6f, 0x3d, 0x74, 0x42, 0xda, 0xbd, 0xb2, 0xbb, 0x87, 0x3e,
  0x4c, 0x3c, 0x6a, 0xbe, 0x0b, 0x11, 0xb6, 0x3e, 0xf5, 0x22, 0x46, 0x3e,
  0x68, 0xb8, 0x86, 0xbd, 0x73, 0x23, 0xab, 0x3e, 0x3d, 0xa9, 0x94, 0x3d,
  0x76, 0x32, 0x40, 0xbe, 0xc1, 0xac, 0xbd, 0x3c, 0xf4, 0x5d, 0xe5, 0x3d,
  0x3d, 0x90, 0xcf, 0xbd, 0x08, 0x30, 0xac, 0xbe, 0x59, 0x4b, 0xce, 0xbd,
  0x3f, 0xfb, 0xcb, 0x3d, 0x5d, 0x2f, 0x86, 0x3e, 0x52, 0x54, 0x05, 0x3e,
  0x6c, 0xf3, 0x91, 0xbe, 0x2c, 0x94, 0x97, 0x3d, 0xb0, 0x93, 0xa7, 0x3e,
  0x2a, 0xa7, 0x02, 0xbe, 0xf3, 0xfe, 0xb3, 0xbe, 0x48, 0x51, 0xfb, 0x3d,
  0x1b, 0x2d, 0x29, 0x3c, 0x71, 0xa9, 0xbd, 0xbe, 0x56, 0x12, 0x45, 0x3e,
  0x7e, 0x3a, 0x95, 0x3d, 0xbd, 0x98, 0xc5, 0xbe, 0xb4, 0x6d, 0xba, 0x3c,
  0x70, 0x9e, 0x27, 0x3e, 0x1b, 0xd2, 0x97, 0x3e, 0x38, 0xbe, 0xc1, 0xbd,
  0xf2, 0x1e, 0x18, 0x3e, 0x22, 0x90, 0x20, 0xbe, 0x39, 0x46, 0x16, 0x3d,
  0xfd, 0x71, 0x1d, 0x3d, 0x7a, 0xc6, 0xa8, 0x3e, 0xc7, 0x08, 0x68, 0x3e,
  0x5c, 0xf3, 0xb7, 0xbe, 0xc5, 0xb9, 0xd7, 0xbc, 0xb2, 0xc3, 0xa5, 0x3e,
  0x0d, 0xcf, 0xb7, 0xbe, 0x7d, 0x3f, 0xc0, 0x3d, 0x11, 0x89, 0xbb, 0x3d,
  0xcf, 0xb2, 0x6c, 0x3e, 0xd1, 0xd2, 0x34, 0xbd, 0x6d, 0x33, 0x0a, 0xbe,
  0xad, 0x62, 0xfa, 0x3d, 0xa4, 0x18, 0xa7, 0xbe, 0x7c, 0x35, 0x88, 0xbe,
  0xff, 0xf3, 0xb1, 0x3e, 0x5c, 0x20, 0x78, 0x3e, 0x23, 0x59, 0x94, 0xbe,
  0x02, 0x6e, 0xb0, 0x3c, 0x5d, 0x81, 0x48, 0x3d, 0x37, 0x82, 0xb6, 0x3e,
  0xa0, 0xb6, 0xa7, 0x3e, 0xb0, 0x23, 0x49, 0x3d, 0xa4, 0xef, 0xfa, 0x3d,
  0x94, 0xbc, 0x8a, 0x3d, 0xa1, 0xa8, 0x41, 0xbe, 0x02, 0xd5, 0x7b, 0x3e,
  0x2f, 0x28, 0x53, 0xbe, 0x5c, 0x49, 0x93, 0xbe, 0x88, 0x12, 0xc3, 0x3d,
  0x13, 0x41, 0x43, 0x3d, 0x0a, 0xf7, 0xff, 0xff, 0x04, 0x00, 0x00, 0x00,
  0x80, 0x00, 0x00, 0x00, 0x44, 0x85, 0xdd, 0xbc, 0x85, 0x52, 0xbb, 0xbc,
  0xdd, 0x16, 0x0a, 0x3d, 0xd3, 0x1c, 0xfd, 0xbc, 0x67, 0x37, 0x62, 0x3d,
  0x78, 0x2e, 0x21, 0xbc, 0xbf, 0x78, 0x76, 0x3d, 0x9e, 0x30, 0x38, 0x3c,
  0x62, 0x7f, 0xdd, 0xbc, 0xd9, 0xc0, 0x1a, 0x3d, 0x94, 0x9e, 0x6c, 0x3d,
  0x1c, 0x50, 0x20, 0x3d, 0x60, 0xe3, 0x28, 0x3c, 0x55, 0x40, 0x1d, 0x3c,
  0xf2, 0x7f, 0x3b, 0x3d, 0xe1, 0xe8, 0x80, 0x3b, 0xa3, 0xdd, 0x91, 0x3b,
  0x4e, 0x60, 0x83, 0x3d, 0x90, 0x63, 0x30, 0x3d, 0xd2, 0x26, 0x27, 0xbd,
  0x87, 0xd6, 0x52, 0x3d, 0xd8, 0x08, 0x50, 0xbc, 0x34, 0xb9, 0x80, 0xbb,
  0xcb, 0xfa, 0xe7, 0x3b, 0xc2, 0x9c, 0x5d, 0x3c, 0x9e, 0x58, 0xc0, 0x3c,
  0x6b, 0xe8, 0x2f, 0x3d, 0x79, 0x83, 0x2a, 0xbd, 0x0f, 0xce, 0xee, 0xbc,
  0x23, 0x3b, 0xa6, 0xbc, 0xfb, 0x93, 0x46, 0x3d, 0xb2, 0xdb, 0x9d, 0xbc,
  0x96, 0xf7, 0xff, 0xff, 0x04, 0x00, 0x00, 0x00, 0x40, 0x00, 0x00, 0x00,
  0x47, 0x17, 0xcb, 0xbc, 0xc1, 0xc3, 0x43, 0x3d, 0xb6, 0xfc, 0x14, 0xbd,
  0xab, 0x70, 0x31, 0x3d, 0x90, 0x2a, 0x74, 0xbb, 0xc9, 0x54, 0xb5, 0x3b,
  0x95, 0xbf, 0x84, 0xbc, 0xe1, 0x57, 0xa4, 0x3c, 0x3e, 0x7d, 0xba, 0x3c,
  0x9b, 0x54, 0xaf, 0xbb, 0x72, 0xf5, 0xc0, 0x3c, 0x77, 0xcc, 0x72, 0xbc,
  0x93, 0x20, 0x23, 0x3b, 0x5b, 0xeb, 0xcd, 0x3c, 0x64, 0xfd, 0x26, 0x3d,
  0x19, 0xf7, 0xea, 0x3c, 0xe2, 0xf7, 0xff, 0xff, 0x04, 0x00, 0x00, 0x00,
  0x04, 0x00, 0x00, 0x00, 0xea, 0x69, 0x43, 0xbb, 0xf2, 0xf7, 0xff, 0xff,
  0x04, 0x00, 0x00, 0x00, 0x00, 0x08, 0x00, 0x00, 0xcb, 0x8e, 0x3e, 0xbd,
  0xf1, 0xdd, 0x33, 0x3e, 0x64, 0xbc, 0x97, 0xbe, 0xf8, 0x79, 0xca, 0x3c,
  0x71, 0x72, 0x0f, 0xbe, 0x48, 0x28, 0x6c, 0xbe, 0x32, 0x92, 0x97, 0xbe,
  0x87, 0xa2, 0x9c, 0x3e, 0x95, 0x4b, 0xff, 0xbd, 0x98, 0x90, 0x0b, 0xbd,
  0x30, 0x74, 0x69, 0xbe, 0x69, 0xaf, 0x68, 0xbd, 0x98, 0xfd, 0x38, 0xbe,
  0xaa, 0x33, 0xeb, 0x3d, 0x23, 0x16, 0x5d, 0x3e, 0xae, 0x3a, 0x26, 0x3e,
  0xf0, 0x57, 0x2a, 0xbe, 0x3e, 0xa8, 0x50, 0x3e, 0xb1, 0xb4, 0x89, 0x3e,
  0x5e, 0xd9, 0xbb, 0xbe, 0x38, 0x27, 0x7e, 0xbe, 0xc2, 0x52, 0x82, 0xbe,
  0x4f, 0x14, 0xb2, 0xbd, 0xa4, 0xd8, 0xd5, 0xbc, 0xbd, 0xc4, 0xba, 0xbd,
  0x27, 0x9b, 0x7b, 0xbe, 0x87, 0xfb, 0x37, 0x3e, 0xa9, 0xfd, 0x86, 0xbe,
  0xeb, 0x6f, 0x68, 0xbe, 0x86, 0x44, 0x7a, 0x3e, 0x61, 0x2b, 0x16, 0x3e,
  0x66, 0xc8, 0x18, 0xbe, 0xa2, 0x00, 0x44, 0x3d, 0x70, 0x27, 0x80, 0x3c,
  0xfa, 0x83, 0x89, 0xbe, 0x8a, 0xd6, 0x14, 0xbd, 0xc3, 0x8d, 0x6f, 0x3e,
  0x6c, 0x38, 0x09, 0xbb, 0x7f, 0xec, 0x6f, 0x3e, 0xdd, 0x0c, 0xb3, 0x3e,
  0x45, 0x5d, 0xde, 0x3d, 0x9f, 0x03, 0x00, 0x3e, 0x12, 0x83, 0x8e, 0x3e,
  0x51, 0xdf, 0x79, 0xbe, 0xd0, 0x5a, 0x1e, 0x3d, 0xb7, 0xa0, 0x54, 0xbe,
  0x3f, 0xcb, 0x86, 0x3b, 0xb2, 0x18, 0x93, 0xbe, 0x52, 0x82, 0x16, 0x3e,
  0xb2, 0x9e, 0x98, 0xbe, 0x00, 0x18, 0x99, 0xbe, 0x65, 0x05, 0x68, 0xbe,
  0x47, 0x41, 0xb8, 0x3e, 0xa6, 0x73, 0x23, 0x3e, 0xca, 0xd0, 0x56, 0xbe,
  0xd6, 0x8a, 0xe7, 0x3d, 0xc2, 0x6a, 0xcb, 0x3e, 0x04, 0x67, 0x3a, 0x3e,
  0xb4, 0x6b, 0x9d, 0x3e, 0x83, 0x77, 0x72, 0xbe, 0xc7, 0x9e, 0x38, 0xbe,
  0x72, 0x70, 0x86, 0x3e, 0xa6, 0x66, 0xc3, 0x3e, 0xd4, 0x5f, 0xb9, 0x3d,
  0x3e, 0x1f, 0xca, 0xbd, 0x84, 0x17, 0x2e, 0x3e, 0x0b, 0x01, 0x85, 0x3e,
  0x26, 0xbb, 0x59, 0x3e, 0xa8, 0x22, 0x8e, 0x3e, 0xa7, 0x3a, 0x93, 0xbe,
  0x33, 0x97, 0x68, 0xbe, 0x5c, 0x99, 0x5e, 0xbe, 0x55, 0x08, 0x98, 0xbd,
  0x6b, 0xe7, 0x86, 0xbd, 0x95, 0x60, 0x25, 0xbe, 0x3f, 0xf6, 0x5f, 0xbe,
  0x71, 0xac, 0x90, 0xbe, 0x74, 0x20, 0x10, 0xbe, 0x24, 0x7f, 0x64, 0xbe,
  0xa2, 0xc1, 0x26, 0x3e, 0x43, 0x4d, 0xb3, 0xbe, 0x27, 0xd9, 0xa6, 0x3d,
  0x70, 0x32, 0x53, 0x3e, 0x5e, 0x9c, 0xdd, 0x3c, 0x3b, 0x66, 0x13, 0xbe,
  0x81, 0xf3, 0x44, 0xbe, 0x06, 0xea, 0x56, 0xbe, 0x52, 0x53, 0x19, 0xbe,
  0xc2, 0x75, 0x85, 0x3d, 0x51, 0x67, 0x39, 0x3d, 0x98, 0xe1, 0x3d, 0xbe,
  0x74, 0xf3, 0xb8, 0xbe, 0x71, 0x0d, 0x74, 0x3e, 0x44, 0x49, 0x23, 0x3e,
  0x3e, 0xf6, 0x1c, 0xbe, 0xba, 0xe9, 0x59, 0xbe, 0x5c, 0x33, 0xbf, 0x3d,
  0x7c, 0xa1, 0x68, 0xbe, 0x53, 0x8d, 0x24, 0xbe, 0x6a, 0xf2, 0xc7, 0x3d,
  0x25, 0xa8, 0x62, 0x3d, 0x96, 0x2f, 0x92, 0xbe, 0x04, 0xd6, 0x94, 0x3d,
  0xc0, 0x96, 0xce, 0x3d, 0x26, 0x6c, 0x84, 0xbe, 0x0a, 0xc8, 0xd7, 0x3e,
  0x0c, 0x2b, 0xa6, 0xbd, 0xa0, 0x26, 0xac, 0x3e, 0x84, 0x90, 0xa2, 0x3e,
  0x98, 0x10, 0xef, 0x3d, 0xbe, 0x47, 0x40, 0x3e, 0x1c, 0xd0, 0x8b, 0x3e,
  0xfe, 0x0d, 0xb9, 0xbd, 0x2b, 0xa6, 0x80, 0xbe, 0xb7, 0x92, 0x1d, 0x3e,
  0x43, 0x3f, 0x84, 0xbe, 0x73, 0x25, 0x0d, 0x3d, 0x2d, 0x3d, 0xfa, 0xbb,
  0x43, 0x56, 0x4d, 0x3e, 0x25, 0xca, 0x60, 0x3d, 0x52, 0xf6, 0x14, 0x3e,
  0xf9, 0x06, 0x6f, 0x3c, 0x6b, 0x5e, 0xb6, 0x3e, 0xee, 0x04, 0xd9, 0xbd,
  0xaf, 0x79, 0x97, 0xbd, 0x7b, 0x4a, 0x82, 0xbe, 0x2a, 0x64, 0xb3, 0x3e,
  0x2b, 0x5e, 0x86, 0xbe, 0xee, 0x2f, 0x88, 0xbb, 0xd9, 0xf6, 0x2b, 0xbe,
  0x50, 0x16, 0x01, 0xbe, 0x7a, 0x80, 0xcb, 0x3d, 0xeb, 0xda, 0xa1, 0x3d,
  0x7e, 0x69, 0x98, 0x3c, 0x99, 0x39, 0x3e, 0x3e, 0x39, 0x09, 0xc2, 0xbc,
  0xdb, 0xea, 0x90, 0xbc, 0x74, 0xb7, 0x97, 0xbd, 0x03, 0xcb, 0x0c, 0x3d,
  0xbe, 0xd5, 0x6a, 0xbe, 0xfc, 0x93, 0x96, 0x3e, 0x06, 0x42, 0xf4, 0xbb,
  0x33, 0x79, 0x4e, 0x3d, 0xd2, 0xe5, 0x2e, 0x3e, 0x85, 0xba, 0x16, 0xbe,
  0x25, 0x87, 0x79, 0x3e, 0xf9, 0xd8, 0x6c, 0x3e, 0x58, 0x06, 0xd9, 0xbd,
  0x45, 0xe3, 0x2c, 0x3e, 0xfc, 0xe2, 0x58, 0xbd, 0xec, 0xfd, 0x63, 0xbe,
  0x68, 0xb6, 0x94, 0x3d, 0x32, 0xce, 0x68, 0xbe, 0x21, 0x03, 0x9b, 0x3e,
  0x07, 0xa4, 0x92, 0x3e, 0x0a, 0x05, 0x8e, 0x3b, 0x86, 0x77, 0x15, 0x3e,
  0xd8, 0xdb, 0x1a, 0x3e, 0x4c, 0x95, 0x8e, 0x3e, 0xd5, 0x9d, 0x55, 0xbe,
  0xb7, 0x04, 0xd9, 0x3c, 0x68, 0xe2, 0x4b, 0x3e, 0xcb, 0x8f, 0x86, 0x3e,
  0x52, 0xa5, 0x7d, 0x3e, 0xae, 0x2c, 0x7e, 0xbe, 0x96, 0x3d, 0x61, 0xbc,
  0x89, 0x77, 0x71, 0x3e, 0x46, 0x3c, 0x9b, 0x3e, 0x4d, 0x68, 0x50, 0x3c,
  0xa5, 0x09, 0x85, 0x3e, 0x43, 0x73, 0x4f, 0x3e, 0x8c, 0x95, 0xc4, 0xbd,
  0xc9, 0x85, 0x9f, 0x3e, 0xcf, 0xef, 0x8a, 0x3d, 0xfa, 0xe3, 0xbf, 0x3e,
  0x08, 0xd2, 0xd6, 0x3d, 0xdf, 0x60, 0x9d, 0xbe, 0xc8, 0xea, 0x99, 0xbd,
  0x91, 0x57, 0x91, 0xbe, 0x40, 0x74, 0x8e, 0xbd, 0x74, 0x65, 0x30, 0x3e,
  0x99, 0x41, 0x82, 0xbe, 0x3c, 0xec, 0x33, 0x3e, 0x9a, 0x3b, 0x86, 0x3e,
  0x72, 0xf1, 0x6b, 0x3d, 0xe3, 0x1c, 0xb3, 0x3e, 0xf8, 0x08, 0xac, 0xbc,
  0xf0, 0x4b, 0x51, 0x3e, 0x4e, 0x5f, 0x8e, 0x3e, 0x56, 0xb6, 0x44, 0xbd,
  0x08, 0x49, 0x85, 0xbe, 0x93, 0xc8, 0xad, 0x3e, 0x9d, 0x64, 0xfa, 0xbc,
  0x56, 0x3a, 0x53, 0x3e, 0x87, 0x04, 0x81, 0xbd, 0x62, 0x72, 0x8d, 0xbd,
  0xc2, 0x2b, 0x14, 0x3e, 0xf6, 0x72, 0x1f, 0xbb, 0xf9, 0x11, 0x1e, 0xbe,
  0xd8, 0xdd, 0x43, 0xbd, 0xad, 0x6a, 0x82, 0xbe, 0x82, 0xce, 0xdd, 0xbc,
  0x09, 0x57, 0x60, 0x3e, 0x3d, 0x3f, 0x44, 0xbc, 0xf1, 0xdf, 0xae, 0x3e,
  0x91, 0x04, 0xc6, 0x3d, 0xd3, 0xec, 0x2b, 0xbe, 0xa7, 0x1f, 0x51, 0xbd,
  0x14, 0xf9, 0xa5, 0xbe, 0xb4, 0xa9, 0x18, 0x3e, 0xf6, 0xd5, 0x45, 0x3e,
  0x53, 0x7e, 0x89, 0x3e, 0x8c, 0xb8, 0x5b, 0x3e, 0x95, 0xe1, 0x43, 0x3e,
  0x51, 0x0f, 0xd7, 0xbd, 0xfe, 0x11, 0x6d, 0x3e, 0x41, 0x6f, 0xa3, 0x3e,
  0xe7, 0x3b, 0xa1, 0xbd, 0x8b, 0xd5, 0xbe, 0xbe, 0x3e, 0xc0, 0x35, 0x3e,
  0x41, 0xa0, 0xb7, 0x3d, 0xfd, 0x5a, 0x91, 0xbe, 0x9f, 0xbe, 0xcb, 0xbd,
  0xec, 0xf0, 0x1c, 0xbe, 0xf6, 0xf4, 0x41, 0xbd, 0x66, 0x8d, 0xa5, 0x3e,
  0xef, 0x53, 0x8d, 0x3e, 0x5f, 0xe4, 0x50, 0x3d, 0xd9, 0x28, 0x8f, 0x3d,
  0xb1, 0xa4, 0x43, 0xbe, 0xad, 0x7d, 0xd4, 0x3e, 0x82, 0xbc, 0x00, 0xbd,
  0x26, 0x1e, 0x85, 0xbe, 0xd5, 0x40, 0xa3, 0x3e, 0x97, 0xd7, 0x0a, 0x3e,
  0xa9, 0x10, 0x89, 0x3e, 0x05, 0xc8, 0xf1, 0xbd, 0x0f, 0x53, 0x81, 0x3e,
  0x5c, 0xfe, 0x31, 0xbe, 0xf8, 0x7c, 0x5b, 0xbe, 0x5b, 0x70, 0x12, 0xbe,
  0xdd, 0x79, 0x63, 0x3e, 0x7a, 0x15, 0xa3, 0xbe, 0x25, 0x56, 0xfb, 0x3d,
  0x0a, 0x56, 0x9c, 0x3e, 0x72, 0xb6, 0x81, 0x3c, 0xd9, 0x20, 0x99, 0x3e,
  0x10, 0xc5, 0x3e, 0x3e, 0x2c, 0x06, 0xaf, 0xbe, 0x6c, 0xa4, 0x1a, 0xbe,
  0xd0, 0x19, 0x06, 0xbe, 0x24, 0x3c, 0x66, 0xbd, 0x51, 0x07, 0x4b, 0x3e,
  0x36, 0x78, 0x58, 0x3e, 0xb2, 0x5b, 0xb6, 0xbe, 0xa2, 0x1a, 0x8e, 0x3e,
  0x80, 0x6a, 0xa1, 0xbd, 0x47, 0x77, 0xad, 0x3e, 0x83, 0x40, 0x56, 0xbe,
  0xed, 0x4a, 0x4c, 0x3e, 0x3f, 0x08, 0x71, 0xbe, 0xad, 0x71, 0xc9, 0x3e,
  0x9e, 0x2e, 0x3c, 0xbe, 0x56, 0xd1, 0xb9, 0x3d, 0x09, 0xcf, 0x44, 0xbe,
  0x54, 0x68, 0xfb, 0xbd, 0x85, 0x7e, 0x34, 0xbe, 0x42, 0xb9, 0x8c, 0xbe,
  0x40, 0x8d, 0x3f, 0x3c, 0x5d, 0x17, 0x5c, 0x3e, 0x0e, 0x1d, 0x8b, 0x3e,
  0xf0, 0x33, 0xa2, 0xbe, 0x64, 0x64, 0x55, 0xbe, 0x41, 0x83, 0x8e, 0x3e,
  0x41, 0x54, 0x47, 0x3e, 0xef, 0x11, 0xbf, 0xbd, 0x23, 0xa3, 0x8f, 0x3e,
  0xee, 0x7b, 0x8c, 0x3e, 0x93, 0xda, 0xc4, 0x3d, 0xc3, 0x47, 0x89, 0x3d,
  0xe2, 0x72, 0x42, 0x3e, 0x52, 0x1c, 0x19, 0x3e, 0xa2, 0xfa, 0xf1, 0x3d,
  0x42, 0x88, 0x81, 0xbc, 0xa6, 0x67, 0xa5, 0x3d, 0xe9, 0x7f, 0x73, 0xbe,
  0x5e, 0xf8, 0xba, 0x3b, 0x50, 0x90, 0x4b, 0xbc, 0xfc, 0x38, 0xe5, 0xbd,
  0x4f, 0x8a, 0xfa, 0x3c, 0xa3, 0x33, 0x3d, 0x3e, 0xdf, 0x64, 0xf5, 0x3c,
  0xd0, 0xfa, 0xa6, 0xbe, 0x3a, 0x06, 0x9a, 0xbe, 0xb1, 0xf3, 0xc4, 0x3b,
  0xac, 0xc8, 0xc6, 0xbd, 0xcc, 0xbd, 0x1f, 0xbd, 0xe4, 0x26, 0xad, 0x3d,
  0xcf, 0xb4, 0xee, 0xbd, 0x43, 0x4e, 0x98, 0xbd, 0xf4, 0x80, 0x4a, 0x3e,
  0xe6, 0x1f, 0x8d, 0xbe, 0xde, 0xbf, 0x30, 0x3d, 0xe4, 0x2c, 0x55, 0x3c,
  0x3b, 0x28, 0x30, 0xbe, 0xe4, 0x2e, 0x8a, 0xbe, 0xd1, 0xe8, 0xbf, 0xbd,
  0x81, 0xcb, 0x81, 0x3e, 0x03, 0xb0, 0x63, 0x3d, 0x66, 0x9d, 0xa6, 0xbd,
  0x6c, 0xe8, 0x70, 0x3e, 0xeb, 0x0f, 0x2c, 0xbe, 0x18, 0xe0, 0xb5, 0xbd,
  0x55, 0x2a, 0x92, 0xbe, 0xd0, 0x37, 0x8c, 0x3e, 0xa6, 0x5f, 0xa0, 0x3e,
  0x5c, 0x43, 0xb0, 0xbe, 0x02, 0x43, 0x5e, 0x3e, 0x07, 0x49, 0x09, 0xbe,
  0xd1, 0x62, 0xa0, 0x3e, 0xe6, 0xa1, 0xfc, 0x3d, 0xf1, 0xfa, 0xd7, 0xbc,
  0xd7, 0x0e, 0xf8, 0xbd, 0x8d, 0x18, 0x2b, 0xbe, 0x92, 0xe9, 0x58, 0xbe,
  0xeb, 0x18, 0x34, 0xbe, 0x32, 0x6d, 0x34, 0x3e, 0x41, 0xe3, 0x07, 0xbe,
  0xf5, 0xee, 0x95, 0x3e, 0x4f, 0x1c, 0xf0, 0x3c, 0xf9, 0xfe, 0x86, 0xbe,
  0xb5, 0xac, 0x66, 0x3e, 0x43, 0x6f, 0x1c, 0x3e, 0x50, 0xf6, 0xaf, 0x3d,
  0x2c, 0x4a, 0x9a, 0xbe, 0x44, 0x86, 0xef, 0x3d, 0xb4, 0x45, 0x1a, 0xbd,
  0xf3, 0x84, 0xb5, 0x3e, 0xc1, 0xba, 0x94, 0xbe, 0xef, 0xc2, 0x39, 0xbd,
  0x4d, 0x1f, 0xae, 0xbe, 0x03, 0x99, 0x0c, 0x3e, 0xfd, 0x9f, 0x56, 0x3e,
  0x45, 0x91, 0x51, 0xbe, 0x15, 0x38, 0xf0, 0x3d, 0x7a, 0xb5, 0xe8, 0x3d,
  0xae, 0xbc, 0x16, 0xbd, 0x7d, 0xf4, 0xef, 0x3d, 0x38, 0x02, 0xb5, 0x3e,
  0x72, 0xbd, 0xb6, 0xbc, 0xc7, 0x3c, 0x55, 0xbe, 0x9b, 0x53, 0x49, 0x3e,
  0xcd, 0x0c, 0x33, 0xbd, 0xcc, 0x11, 0x82, 0x3e, 0x35, 0x72, 0xa7, 0x3e,
  0xf4, 0xb3, 0x30, 0x3e, 0x12, 0xd2, 0x21, 0xbe, 0xb6, 0x73, 0x60, 0xbe,
  0xd1, 0xc7, 0x82, 0x3e, 0xee, 0x1f, 0xbb, 0x3c, 0x36, 0xa2, 0x8b, 0x3e,
  0x9b, 0xb8, 0xdb, 0x3d, 0xbc, 0x77, 0x80, 0xbd, 0x18, 0x95, 0xa6, 0xbe,
  0xa1, 0x21, 0x82, 0xbc, 0x58, 0xcc, 0xac, 0x3e, 0x34, 0xb0, 0x59, 0x3e,
  0x55, 0x74, 0x15, 0x3e, 0x06, 0x3c, 0x09, 0xbe, 0x49, 0x69, 0x5b, 0x3d,
  0x76, 0x2b, 0x0f, 0xbe, 0x82, 0x70, 0x73, 0xbd, 0x44, 0xc3, 0x37, 0xbe,
  0x81, 0x65, 0x26, 0xbd, 0x9f, 0x84, 0x88, 0x3e, 0xb9, 0xe8, 0x5f, 0x3e,
  0x76, 0x4d, 0x37, 0xbe, 0x7e, 0x57, 0x2d, 0x3e, 0x6b, 0xb8, 0x44, 0xbe,
  0xc5, 0x97, 0x5e, 0x3e, 0xdd, 0x6d, 0x87, 0x3e, 0xa5, 0xfa, 0x16, 0x3e,
  0x2e, 0x08, 0x0b, 0xbe, 0xbc, 0x29, 0xa2, 0x3e, 0x6b, 0xeb, 0x8a, 0x3e,
  0x56, 0x6b, 0x61, 0xbe, 0x64, 0x75, 0x68, 0x3e, 0xca, 0x15, 0x60, 0xbd,
  0x7b, 0x06, 0x9e, 0x3e, 0xe0, 0x96, 0x61, 0xbe, 0xa1, 0xb1, 0x0c, 0xbc,
  0x8f, 0x53, 0xa3, 0xbe, 0x36, 0xe1, 0x96, 0x3e, 0x03, 0xe7, 0xa2, 0x3e,
  0x09, 0xa7, 0x51, 0xbe, 0xd5, 0xfa, 0x92, 0xbe, 0xfd, 0x30, 0x2c, 0xbe,
  0xed, 0xda, 0x02, 0xbd, 0x68, 0x19, 0x60, 0x3e, 0x91, 0xc7, 0x2e, 0x3e,
  0x85, 0x4c, 0x7c, 0x3e, 0x94, 0x25, 0xa2, 0x3d, 0x47, 0x3f, 0x81, 0x3d,
  0x65, 0x21, 0x82, 0xbe, 0x71, 0xe6, 0xce, 0xbc, 0x54, 0xd4, 0x76, 0xbe,
  0x21, 0x13, 0x10, 0x3e, 0x48, 0xcc, 0x76, 0x3d, 0x3d, 0xb3, 0xbd, 0xbe,
  0x71, 0xb9, 0x9b, 0xbe, 0x8d, 0xb6, 0x8a, 0xbd, 0xa3, 0x8d, 0x1a, 0x3d,
  0x8f, 0x06, 0x06, 0x3a, 0x00, 0x26, 0x3a, 0x3e, 0x98, 0xfb, 0x96, 0xbe,
  0x53, 0x95, 0x09, 0x3e, 0x27, 0x29, 0x64, 0x3e, 0x1b, 0x0a, 0x68, 0xbe,
  0xa2, 0x65, 0x64, 0xbe, 0x3e, 0x05, 0x99, 0x3b, 0x30, 0x3a, 0x54, 0xbe,
  0x21, 0xd5, 0x49, 0xbe, 0xb6, 0x18, 0x75, 0xbe, 0xe1, 0x5c, 0xa5, 0x3d,
  0x33, 0xa9, 0xb4, 0x3c, 0x14, 0x99, 0xa7, 0x3e, 0x2c, 0xb2, 0xa0, 0x3e,
  0x72, 0x64, 0x98, 0xbe, 0x33, 0x00, 0x69, 0x3e, 0x60, 0x74, 0x8d, 0x3e,
  0x2c, 0x73, 0x2c, 0x3e, 0xb8, 0xcf, 0x9b, 0x3e, 0x01, 0x68, 0x9e, 0xbe,
  0x8c, 0x2b, 0x07, 0x3e, 0xcc, 0xb1, 0xa3, 0x3e, 0x3d, 0x2c, 0x30, 0x3e,
  0x46, 0x08, 0x3d, 0x3d, 0x0e, 0x53, 0xdb, 0x3a, 0x7f, 0x15, 0x8d, 0xbe,
  0xa2, 0x1d, 0x42, 0x3e, 0x52, 0xda, 0x83, 0x3e, 0x74, 0x42, 0xcf, 0xbd,
  0xfb, 0x65, 0x07, 0xbe, 0x7f, 0x40, 0x83, 0xbe, 0xe2, 0xb3, 0x3e, 0xbe,
  0xb3, 0x41, 0xd6, 0xbd, 0xe3, 0xdc, 0xdd, 0xbd, 0xe1, 0x5c, 0x7d, 0xbe,
  0x2b, 0x15, 0xde, 0xbd, 0x74, 0x9b, 0x15, 0xbe, 0x45, 0x4d, 0xa0, 0xbe,
  0x6d, 0xe8, 0xb9, 0x3e, 0xee, 0xc9, 0xdc, 0xbb, 0xbc, 0xef, 0x93, 0x3e,
  0xa6, 0x3a, 0x35, 0xbd, 0xe2, 0xf3, 0xab, 0xbb, 0x32, 0x3d, 0x44, 0xbd,
  0x10, 0x2d, 0x89, 0x3d, 0x6e, 0x6c, 0xc5, 0x3e, 0x2c, 0xb4, 0xcc, 0xbc,
  0x11, 0xb4, 0x87, 0x3d, 0x0e, 0x55, 0x86, 0x3d, 0xf6, 0x60, 0x91, 0xbc,
  0xfc, 0xb9, 0x96, 0x3e, 0x7e, 0x1b, 0x96, 0x3e, 0xef, 0xdb, 0x69, 0xbd,
  0xb8, 0x4e, 0xf9, 0x3d, 0x7f, 0x1c, 0x18, 0xbd, 0xca, 0xc7, 0xac, 0x3e,
  0x4c, 0x60, 0x82, 0xbe, 0x71, 0x0e, 0x39, 0xbd, 0x0a, 0x2a, 0x90, 0x3e,
  0xde, 0x3a, 0x9d, 0x3d, 0x5d, 0xb2, 0x85, 0xbe, 0x9a, 0xc3, 0x86, 0xbe,
  0x6c, 0x37, 0x08, 0xbc, 0x64, 0x56, 0xb9, 0x3e, 0x45, 0xc0, 0x52, 0xbe,
  0xfd, 0xd5, 0x3c, 0xbe, 0xfd, 0xe5, 0x44, 0xbd, 0xd3, 0x5a, 0x4d, 0xbe,
  0x96, 0x85, 0x95, 0x3d, 0x78, 0xd9, 0xe8, 0x3d, 0x01, 0xd9, 0x20, 0x3e,
  0xc2, 0x79, 0x10, 0x3d, 0xd9, 0x36, 0xa9, 0x3e, 0xfd, 0xf2, 0x54, 0xbe,
  0xe2, 0x88, 0x3f, 0xbe, 0x3b, 0xad, 0x06, 0x3c, 0x6e, 0x8c, 0x53, 0x3e,
  0x94, 0x1b, 0x9c, 0xbc, 0x20, 0x4e, 0x21, 0x3e, 0xb3, 0x0c, 0x83, 0x3d,
  0x86, 0x66, 0x80, 0xbe, 0x76, 0x2f, 0x1b, 0xbc, 0x65, 0x80, 0xb6, 0xbd,
  0x28, 0x77, 0x65, 0xbe, 0xbc, 0xe2, 0x8e, 0xbd, 0x53, 0x6a, 0x02, 0xbe,
  0x0a, 0xf4, 0x29, 0xbc, 0xbe, 0xd8, 0x07, 0x3e, 0x1e, 0xcd, 0x05, 0xbe,
  0x58, 0x31, 0x71, 0x3d, 0x5d, 0x53, 0xce, 0x3d, 0xec, 0x70, 0x5f, 0xbe,
  0xde, 0x89, 0xb2, 0x3e, 0x04, 0xe7, 0x31, 0x3e, 0x7d, 0xb0, 0xab, 0x3e,
  0x29, 0x6d, 0x47, 0xbe, 0xa1, 0xf0, 0x8a, 0xbd, 0x69, 0x4f, 0x1a, 0xbe,
  0x25, 0x14, 0x45, 0x3e, 0x00, 0x00, 0x06, 0x00, 0x08, 0x00, 0x04, 0x00,
  0x06, 0x00, 0x00, 0x00, 0x04, 0x00, 0x00, 0x00, 0x40, 0x00, 0x00, 0x00,
  0x63, 0x9b, 0xc0, 0x3d, 0x4d, 0x36, 0xa1, 0xbe, 0x2c, 0x92, 0x30, 0xbe,
  0x72, 0x6f, 0x06, 0xbf, 0xe6, 0xf1, 0xa7, 0xbe, 0x2a, 0x08, 0x5a, 0xbe,
  0x8b, 0x6d, 0x97, 0x3d, 0xc5, 0x7d, 0x10, 0x3f, 0x5a, 0x7c, 0x5a, 0xbe,
  0x30, 0x02, 0xbf, 0xbe, 0x1e, 0x0c, 0x3a, 0x3d, 0x39, 0x9c, 0xfc, 0x3e,
  0x05, 0xfa, 0x0a, 0x3f, 0x61, 0x90, 0xca, 0xbe, 0xc0, 0x06, 0x0a, 0xbe,
  0x3f, 0xa1, 0xb5, 0xbe, 0x44, 0xfb, 0xff, 0xff, 0x48, 0xfb, 0xff, 0xff,
  0x0f, 0x00, 0x00, 0x00, 0x4d, 0x4c, 0x49, 0x52, 0x20, 0x43, 0x6f, 0x6e,
  0x76, 0x65, 0x72, 0x74, 0x65, 0x64, 0x2e, 0x00, 0x01, 0x00, 0x00, 0x00,
  0x14, 0x00, 0x00, 0x00, 0x00, 0x00, 0x0e, 0x00, 0x18, 0x00, 0x14, 0x00,
  0x10, 0x00, 0x0c, 0x00, 0x08, 0x00, 0x04, 0x00, 0x0e, 0x00, 0x00, 0x00,
  0x14, 0x00, 0x00, 0x00, 0x1c, 0x00, 0x00, 0x00, 0xd8, 0x00, 0x00, 0x00,
  0xdc, 0x00, 0x00, 0x00, 0xe0, 0x00, 0x00, 0x00, 0x04, 0x00, 0x00, 0x00,
  0x6d, 0x61, 0x69, 0x6e, 0x00, 0x00, 0x00, 0x00, 0x03, 0x00, 0x00, 0x00,
  0x80, 0x00, 0x00, 0x00, 0x38, 0x00, 0x00, 0x00, 0x04, 0x00, 0x00, 0x00,
  0x9a, 0xff, 0xff, 0xff, 0x10, 0x00, 0x00, 0x00, 0x00, 0x00, 0x00, 0x08,
  0x0c, 0x00, 0x00, 0x00, 0x10, 0x00, 0x00, 0x00, 0xc0, 0xfb, 0xff, 0xff,
  0x01, 0x00, 0x00, 0x00, 0x09, 0x00, 0x00, 0x00, 0x03, 0x00, 0x00, 0x00,
  0x08, 0x00, 0x00, 0x00, 0x01, 0x00, 0x00, 0x00, 0x03, 0x00, 0x00, 0x00,
  0xca, 0xff, 0xff, 0xff, 0x10, 0x00, 0x00, 0x00, 0x00, 0x00, 0x00, 0x08,
  0x10, 0x00, 0x00, 0x00, 0x14, 0x00, 0x00, 0x00, 0xba, 0xff, 0xff, 0xff,
  0x00, 0x00, 0x00, 0x01, 0x01, 0x00, 0x00, 0x00, 0x08, 0x00, 0x00, 0x00,
  0x03, 0x00, 0x00, 0x00, 0x07, 0x00, 0x00, 0x00, 0x02, 0x00, 0x00, 0x00,
  0x04, 0x00, 0x00, 0x00, 0x00, 0x00, 0x0e, 0x00, 0x16, 0x00, 0x00, 0x00,
  0x10, 0x00, 0x0c, 0x00, 0x0b, 0x00, 0x04, 0x00, 0x0e, 0x00, 0x00, 0x00,
  0x18, 0x00, 0x00, 0x00, 0x00, 0x00, 0x00, 0x08, 0x18, 0x00, 0x00, 0x00,
  0x1c, 0x00, 0x00, 0x00, 0x00, 0x00, 0x06, 0x00, 0x08, 0x00, 0x07, 0x00,
  0x06, 0x00, 0x00, 0x00, 0x00, 0x00, 0x00, 0x01, 0x01, 0x00, 0x00, 0x00,
  0x07, 0x00, 0x00, 0x00, 0x03, 0x00, 0x00, 0x00, 0x00, 0x00, 0x00, 0x00,
  0x06, 0x00, 0x00, 0x00, 0x05, 0x00, 0x00, 0x00, 0x01, 0x00, 0x00, 0x00,
  0x09, 0x00, 0x00, 0x00, 0x01, 0x00, 0x00, 0x00, 0x00, 0x00, 0x00, 0x00,
  0x0a, 0x00, 0x00, 0x00, 0x68, 0x03, 0x00, 0x00, 0x10, 0x03, 0x00, 0x00,
  0xb8, 0x02, 0x00, 0x00, 0x7c, 0x02, 0x00, 0x00, 0x40, 0x02, 0x00, 0x00,
  0xe8, 0x01, 0x00, 0x00, 0x98, 0x01, 0x00, 0x00, 0xfc, 0x00, 0x00, 0x00,
  0x60, 0x00, 0x00, 0x00, 0x04, 0x00, 0x00, 0x00, 0xd6, 0xfc, 0xff, 0xff,
  0x00, 0x00, 0x00, 0x01, 0x14, 0x00, 0x00, 0x00, 0x1c, 0x00, 0x00, 0x00,
  0x1c, 0x00, 0x00, 0x00, 0x0a, 0x00, 0x00, 0x00, 0x34, 0x00, 0x00, 0x00,
  0x02, 0x00, 0x00, 0x00, 0xff, 0xff, 0xff, 0xff, 0x01, 0x00, 0x00, 0x00,
  0xc0, 0xfc, 0xff, 0xff, 0x1b, 0x00, 0x00, 0x00, 0x53, 0x74, 0x61, 0x74,
  0x65, 0x66, 0x75, 0x6c, 0x50, 0x61, 0x72, 0x74, 0x69, 0x74, 0x69, 0x6f,
  0x6e, 0x65, 0x64, 0x43, 0x61, 0x6c, 0x6c, 0x5f, 0x31, 0x3a, 0x30, 0x00,
  0x02, 0x00, 0x00, 0x00, 0x01, 0x00, 0x00, 0x00, 0x01, 0x00, 0x00, 0x00,
  0x2e, 0xfd, 0xff, 0xff, 0x00, 0x00, 0x00, 0x01, 0x14, 0x00, 0x00, 0x00,
  0x1c, 0x00, 0x00, 0x00, 0x1c, 0x00, 0x00, 0x00, 0x09, 0x00, 0x00, 0x00,
  0x74, 0x00, 0x00, 0x00, 0x02, 0x00, 0x00, 0x00, 0xff, 0xff, 0xff, 0xff,
  0x10, 0x00, 0x00, 0x00, 0x18, 0xfd, 0xff, 0xff, 0x5a, 0x00, 0x00, 0x00,
  0x73, 0x65, 0x71, 0x75, 0x65, 0x6e, 0x74, 0x69, 0x61, 0x6c, 0x5f, 0x31,
  0x5f, 0x31, 0x2f, 0x64, 0x65, 0x6e, 0x73, 0x65, 0x5f, 0x34, 0x5f, 0x31,
  0x2f, 0x4d, 0x61, 0x74, 0x4d, 0x75, 0x6c, 0x3b, 0x73, 0x65, 0x71, 0x75,
  0x65, 0x6e, 0x74, 0x69, 0x61, 0x6c, 0x5f, 0x31, 0x5f, 0x31, 0x2f, 0x64,
  0x65, 0x6e, 0x73, 0x65, 0x5f, 0x34, 0x5f, 0x31, 0x2f, 0x52, 0x65, 0x6c,
  0x75, 0x3b, 0x73, 0x65, 0x71, 0x75, 0x65, 0x6e, 0x74, 0x69, 0x61, 0x6c,
  0x5f, 0x31, 0x5f, 0x31, 0x2f, 0x64, 0x65, 0x6e, 0x73, 0x65, 0x5f, 0x34,
  0x5f, 0x31, 0x2f, 0x41, 0x64, 0x64, 0x00, 0x00, 0x02, 0x00, 0x00, 0x00,
  0x01, 0x00, 0x00, 0x00, 0x10, 0x00, 0x00, 0x00, 0xc6, 0xfd, 0xff, 0xff,
  0x00, 0x00, 0x00, 0x01, 0x14, 0x00, 0x00, 0x00, 0x1c, 0x00, 0x00, 0x00,
  0x1c, 0x00, 0x00, 0x00, 0x08, 0x00, 0x00, 0x00, 0x74, 0x00, 0x00, 0x00,
  0x02, 0x00, 0x00, 0x00, 0xff, 0xff, 0xff, 0xff, 0x20, 0x00, 0x00, 0x00,
  0xb0, 0xfd, 0xff, 0xff, 0x5a, 0x00, 0x00, 0x00, 0x73, 0x65, 0x71, 0x75,
  0x65, 0x6e, 0x74, 0x69, 0x61, 0x6c, 0x5f, 0x31, 0x5f, 0x31, 0x2f, 0x64,
  0x65, 0x6e, 0x73, 0x65, 0x5f, 0x33, 0x5f, 0x31, 0x2f, 0x4d, 0x61, 0x74,
  0x4d, 0x75, 0x6c, 0x3b, 0x73, 0x65, 0x71, 0x75, 0x65, 0x6e, 0x74, 0x69,
  0x61, 0x6c, 0x5f, 0x31, 0x5f, 0x31, 0x2f, 0x64, 0x65, 0x6e, 0x73, 0x65,
  0x5f, 0x33, 0x5f, 0x31, 0x2f, 0x52, 0x65, 0x6c, 0x75, 0x3b, 0x73, 0x65,
  0x71, 0x75, 0x65, 0x6e, 0x74, 0x69, 0x61, 0x6c, 0x5f, 0x31, 0x5f, 0x31,
  0x2f, 0x64, 0x65, 0x6e, 0x73, 0x65, 0x5f, 0x33, 0x5f, 0x31, 0x2f, 0x41,
  0x64, 0x64, 0x00, 0x00, 0x02, 0x00, 0x00, 0x00, 0x01, 0x00, 0x00, 0x00,
  0x20, 0x00, 0x00, 0x00, 0xb2, 0xfe, 0xff, 0xff, 0x00, 0x00, 0x00, 0x01,
  0x10, 0x00, 0x00, 0x00, 0x10, 0x00, 0x00, 0x00, 0x07, 0x00, 0x00, 0x00,
  0x2c, 0x00, 0x00, 0x00, 0x38, 0xfe, 0xff, 0xff, 0x1f, 0x00, 0x00, 0x00,
  0x73, 0x65, 0x71, 0x75, 0x65, 0x6e, 0x74, 0x69, 0x61, 0x6c, 0x5f, 0x31,
  0x5f, 0x31, 0x2f, 0x64, 0x65, 0x6e, 0x73, 0x65, 0x5f, 0x33, 0x5f, 0x31,
  0x2f, 0x4d, 0x61, 0x74, 0x4d, 0x75, 0x6c, 0x00, 0x02, 0x00, 0x00, 0x00,
  0x20, 0x00, 0x00, 0x00, 0x0c, 0x00, 0x00, 0x00, 0xfe, 0xfe, 0xff, 0xff,
  0x00, 0x00, 0x00, 0x01, 0x10, 0x00, 0x00, 0x00, 0x10, 0x00, 0x00, 0x00,
  0x06, 0x00, 0x00, 0x00, 0x38, 0x00, 0x00, 0x00, 0x84, 0xfe, 0xff, 0xff,
  0x2b, 0x00, 0x00, 0x00, 0x73, 0x65, 0x71, 0x75, 0x65, 0x6e, 0x74, 0x69,
  0x61, 0x6c, 0x5f, 0x31, 0x5f, 0x31, 0x2f, 0x64, 0x65, 0x6e, 0x73, 0x65,
  0x5f, 0x33, 0x5f, 0x31, 0x2f, 0x41, 0x64, 0x64, 0x2f, 0x52, 0x65, 0x61,
  0x64, 0x56, 0x61, 0x72, 0x69, 0x61, 0x62, 0x6c, 0x65, 0x4f, 0x70, 0x00,
  0x01, 0x00, 0x00, 0x00, 0x20, 0x00, 0x00, 0x00, 0x52, 0xff, 0xff, 0xff,
  0x00, 0x00, 0x00, 0x01, 0x10, 0x00, 0x00, 0x00, 0x10, 0x00, 0x00, 0x00,
  0x05, 0x00, 0x00, 0x00, 0x1c, 0x00, 0x00, 0x00, 0xd8, 0xfe, 0xff, 0xff,
  0x0f, 0x00, 0x00, 0x00, 0x61, 0x72, 0x69, 0x74, 0x68, 0x2e, 0x63, 0x6f,
  0x6e, 0x73, 0x74, 0x61, 0x6e, 0x74, 0x33, 0x00, 0x01, 0x00, 0x00, 0x00,
  0x10, 0x00, 0x00, 0x00, 0x8a, 0xff, 0xff, 0xff, 0x00, 0x00, 0x00, 0x01,
  0x10, 0x00, 0x00, 0x00, 0x10, 0x00, 0x00, 0x00, 0x04, 0x00, 0x00, 0x00,
  0x1c, 0x00, 0x00, 0x00, 0x10, 0xff, 0xff, 0xff, 0x0f, 0x00, 0x00, 0x00,
  0x61, 0x72, 0x69, 0x74, 0x68, 0x2e, 0x63, 0x6f, 0x6e, 0x73, 0x74, 0x61,
  0x6e, 0x74, 0x32, 0x00, 0x01, 0x00, 0x00, 0x00, 0x01, 0x00, 0x00, 0x00,
  0xc2, 0xff, 0xff, 0xff, 0x00, 0x00, 0x00, 0x01, 0x10, 0x00, 0x00, 0x00,
  0x10, 0x00, 0x00, 0x00, 0x03, 0x00, 0x00, 0x00, 0x1c, 0x00, 0x00, 0x00,
  0x48, 0xff, 0xff, 0xff, 0x0f, 0x00, 0x00, 0x00, 0x61, 0x72, 0x69, 0x74,
  0x68, 0x2e, 0x63, 0x6f, 0x6e, 0x73, 0x74, 0x61, 0x6e, 0x74, 0x31, 0x00,
  0x02, 0x00, 0x00, 0x00, 0x10, 0x00, 0x00, 0x00, 0x20, 0x00, 0x00, 0x00,
  0x00, 0x00, 0x16, 0x00, 0x18, 0x00, 0x14, 0x00, 0x00, 0x00, 0x10, 0x00,
  0x0c, 0x00, 0x08, 0x00, 0x00, 0x00, 0x00, 0x00, 0x00, 0x00, 0x07, 0x00,
  0x16, 0x00, 0x00, 0x00, 0x00, 0x00, 0x00, 0x01, 0x10, 0x00, 0x00, 0x00,
  0x10, 0x00, 0x00, 0x00, 0x02, 0x00, 0x00, 0x00, 0x1c, 0x00, 0x00, 0x00,
  0x9c, 0xff, 0xff, 0xff, 0x0e, 0x00, 0x00, 0x00, 0x61, 0x72, 0x69, 0x74,
  0x68, 0x2e, 0x63, 0x6f, 0x6e, 0x73, 0x74, 0x61, 0x6e, 0x74, 0x00, 0x00,
  0x02, 0x00, 0x00, 0x00, 0x01, 0x00, 0x00, 0x00, 0x10, 0x00, 0x00, 0x00,
  0x00, 0x00, 0x16, 0x00, 0x1c, 0x00, 0x18, 0x00, 0x00, 0x00, 0x14, 0x00,
  0x10, 0x00, 0x0c, 0x00, 0x00, 0x00, 0x00, 0x00, 0x08, 0x00, 0x07, 0x00,
  0x16, 0x00, 0x00, 0x00, 0x00, 0x00, 0x00, 0x01, 0x14, 0x00, 0x00, 0x00,
  0x20, 0x00, 0x00, 0x00, 0x20, 0x00, 0x00, 0x00, 0x01, 0x00, 0x00, 0x00,
  0x3c, 0x00, 0x00, 0x00, 0x02, 0x00, 0x00, 0x00, 0xff, 0xff, 0xff, 0xff,
  0x0c, 0x00, 0x00, 0x00, 0x04, 0x00, 0x04, 0x00, 0x04, 0x00, 0x00, 0x00,
  0x1f, 0x00, 0x00, 0x00, 0x73, 0x65, 0x72, 0x76, 0x69, 0x6e, 0x67, 0x5f,
  0x64, 0x65, 0x66, 0x61, 0x75, 0x6c, 0x74, 0x5f, 0x69, 0x6e, 0x70, 0x75,
  0x74, 0x5f, 0x6c, 0x61, 0x79, 0x65, 0x72, 0x5f, 0x31, 0x3a, 0x30, 0x00,
  0x02, 0x00, 0x00, 0x00, 0x01, 0x00, 0x00, 0x00, 0x0c, 0x00, 0x00, 0x00,
  0x01, 0x00, 0x00, 0x00, 0x10, 0x00, 0x00, 0x00, 0x0c, 0x00, 0x0c, 0x00,
  0x0b, 0x00, 0x00, 0x00, 0x00, 0x00, 0x04, 0x00, 0x0c, 0x00, 0x00, 0x00,
  0x09, 0x00, 0x00, 0x00, 0x00, 0x00, 0x00, 0x09
};
unsigned int model_brix_tflite_len = 5708;
